[PAD]	0
<unk>	0
<s>	0
</s>	0
[unused0]	0
[unused1]	0
[unused2]	0
[unused3]	0
[unused4]	0
[unused5]	0
[unused6]	0
[unused7]	0
[unused8]	0
[unused9]	0
[unused10]	0
[unused11]	0
[unused12]	0
[unused13]	0
[unused14]	0
[unused15]	0
[unused16]	0
[unused17]	0
[unused18]	0
[unused19]	0
[unused20]	0
[unused21]	0
[unused22]	0
[unused23]	0
[unused24]	0
[unused25]	0
[unused26]	0
[unused27]	0
[unused28]	0
[unused29]	0
[unused30]	0
[unused31]	0
[unused32]	0
[unused33]	0
[unused34]	0
[unused35]	0
[unused36]	0
[unused37]	0
[unused38]	0
[unused39]	0
[unused40]	0
[unused41]	0
[unused42]	0
[unused43]	0
[unused44]	0
[unused45]	0
[unused46]	0
[unused47]	0
[unused48]	0
[unused49]	0
[unused50]	0
[unused51]	0
[unused52]	0
[unused53]	0
[unused54]	0
[unused55]	0
[unused56]	0
[unused57]	0
[unused58]	0
[unused59]	0
[unused60]	0
[unused61]	0
[unused62]	0
[unused63]	0
[unused64]	0
[unused65]	0
[unused66]	0
[unused67]	0
[unused68]	0
[unused69]	0
[unused70]	0
[unused71]	0
[unused72]	0
[unused73]	0
[unused74]	0
[unused75]	0
[unused76]	0
[unused77]	0
[unused78]	0
[unused79]	0
[unused80]	0
[unused81]	0
[unused82]	0
[unused83]	0
[unused84]	0
[unused85]	0
[unused86]	0
[unused87]	0
[unused88]	0
[unused89]	0
[unused90]	0
[unused91]	0
[unused92]	0
[unused93]	0
[unused94]	0
[unused95]	0
[unused96]	0
[unused97]	0
[unused98]	0
[unused99]	0
[unused100]	0
[unused101]	0
[unused102]	0
[unused103]	0
[unused104]	0
[unused105]	0
[unused106]	0
[unused107]	0
[unused108]	0
[unused109]	0
[unused110]	0
[unused111]	0
[unused112]	0
[unused113]	0
[unused114]	0
[unused115]	0
[unused116]	0
[unused117]	0
[unused118]	0
[unused119]	0
[unused120]	0
[unused121]	0
[unused122]	0
[unused123]	0
[unused124]	0
[unused125]	0
[unused126]	0
[unused127]	0
[unused128]	0
[unused129]	0
[unused130]	0
[unused131]	0
[unused132]	0
[unused133]	0
[unused134]	0
[unused135]	0
[unused136]	0
[unused137]	0
[unused138]	0
[unused139]	0
[unused140]	0
[unused141]	0
[unused142]	0
[unused143]	0
[unused144]	0
[unused145]	0
[unused146]	0
[unused147]	0
[unused148]	0
[unused149]	0
[unused150]	0
[unused151]	0
[unused152]	0
[unused153]	0
[unused154]	0
[unused155]	0
[unused156]	0
[unused157]	0
[unused158]	0
[unused159]	0
[unused160]	0
[unused161]	0
[unused162]	0
[unused163]	0
[unused164]	0
[unused165]	0
[unused166]	0
[unused167]	0
[unused168]	0
[unused169]	0
[unused170]	0
[unused171]	0
[unused172]	0
[unused173]	0
[unused174]	0
[unused175]	0
[unused176]	0
[unused177]	0
[unused178]	0
[unused179]	0
[unused180]	0
[unused181]	0
[unused182]	0
[unused183]	0
[unused184]	0
[unused185]	0
[unused186]	0
[unused187]	0
[unused188]	0
[unused189]	0
[unused190]	0
[unused191]	0
[unused192]	0
[unused193]	0
[unused194]	0
[unused195]	0
[unused196]	0
[unused197]	0
[unused198]	0
[unused199]	0
[unused200]	0
[unused201]	0
[unused202]	0
[unused203]	0
[unused204]	0
[unused205]	0
[unused206]	0
[unused207]	0
[unused208]	0
[unused209]	0
[unused210]	0
[unused211]	0
[unused212]	0
[unused213]	0
[unused214]	0
[unused215]	0
[unused216]	0
[unused217]	0
[unused218]	0
[unused219]	0
[unused220]	0
[unused221]	0
[unused222]	0
[unused223]	0
[unused224]	0
[unused225]	0
[unused226]	0
[unused227]	0
[unused228]	0
[unused229]	0
[unused230]	0
[unused231]	0
[unused232]	0
[unused233]	0
[unused234]	0
[unused235]	0
[unused236]	0
[unused237]	0
[unused238]	0
[unused239]	0
[unused240]	0
[unused241]	0
[unused242]	0
[unused243]	0
[unused244]	0
[unused245]	0
[unused246]	0
[unused247]	0
[unused248]	0
[unused249]	0
[unused250]	0
[unused251]	0
[unused252]	0
[unused253]	0
[unused254]	0
[unused255]	0
[unused256]	0
[unused257]	0
[unused258]	0
[unused259]	0
[unused260]	0
[unused261]	0
[unused262]	0
[unused263]	0
[unused264]	0
[unused265]	0
[unused266]	0
[unused267]	0
[unused268]	0
[unused269]	0
[unused270]	0
[unused271]	0
[unused272]	0
[unused273]	0
[unused274]	0
[unused275]	0
[unused276]	0
[unused277]	0
[unused278]	0
[unused279]	0
[unused280]	0
[unused281]	0
[unused282]	0
[unused283]	0
[unused284]	0
[unused285]	0
[unused286]	0
[unused287]	0
[unused288]	0
[unused289]	0
[unused290]	0
[unused291]	0
[unused292]	0
[unused293]	0
[unused294]	0
[unused295]	0
[unused296]	0
[unused297]	0
[unused298]	0
[unused299]	0
[unused300]	0
[unused301]	0
[unused302]	0
[unused303]	0
[unused304]	0
[unused305]	0
[unused306]	0
[unused307]	0
[unused308]	0
[unused309]	0
[unused310]	0
[unused311]	0
[unused312]	0
[unused313]	0
[unused314]	0
[unused315]	0
[unused316]	0
[unused317]	0
[unused318]	0
[unused319]	0
[unused320]	0
[unused321]	0
[unused322]	0
[unused323]	0
[unused324]	0
[unused325]	0
[unused326]	0
[unused327]	0
[unused328]	0
[unused329]	0
[unused330]	0
[unused331]	0
[unused332]	0
[unused333]	0
[unused334]	0
[unused335]	0
[unused336]	0
[unused337]	0
[unused338]	0
[unused339]	0
[unused340]	0
[unused341]	0
[unused342]	0
[unused343]	0
[unused344]	0
[unused345]	0
[unused346]	0
[unused347]	0
[unused348]	0
[unused349]	0
[unused350]	0
[unused351]	0
[unused352]	0
[unused353]	0
[unused354]	0
[unused355]	0
[unused356]	0
[unused357]	0
[unused358]	0
[unused359]	0
[unused360]	0
[unused361]	0
[unused362]	0
[unused363]	0
[unused364]	0
[unused365]	0
[unused366]	0
[unused367]	0
[unused368]	0
[unused369]	0
[unused370]	0
[unused371]	0
[unused372]	0
[unused373]	0
[unused374]	0
[unused375]	0
[unused376]	0
[unused377]	0
[unused378]	0
[unused379]	0
[unused380]	0
[unused381]	0
[unused382]	0
[unused383]	0
[unused384]	0
[unused385]	0
[unused386]	0
[unused387]	0
[unused388]	0
[unused389]	0
[unused390]	0
[unused391]	0
[unused392]	0
[unused393]	0
[unused394]	0
[unused395]	0
[unused396]	0
[unused397]	0
[unused398]	0
[unused399]	0
[unused400]	0
[unused401]	0
[unused402]	0
[unused403]	0
[unused404]	0
[unused405]	0
[unused406]	0
[unused407]	0
[unused408]	0
[unused409]	0
[unused410]	0
[unused411]	0
[unused412]	0
[unused413]	0
[unused414]	0
[unused415]	0
[unused416]	0
[unused417]	0
[unused418]	0
[unused419]	0
[unused420]	0
[unused421]	0
[unused422]	0
[unused423]	0
[unused424]	0
[unused425]	0
[unused426]	0
[unused427]	0
[unused428]	0
[unused429]	0
[unused430]	0
[unused431]	0
[unused432]	0
[unused433]	0
[unused434]	0
[unused435]	0
[unused436]	0
[unused437]	0
[unused438]	0
[unused439]	0
[unused440]	0
[unused441]	0
[unused442]	0
[unused443]	0
[unused444]	0
[unused445]	0
[unused446]	0
[unused447]	0
[unused448]	0
[unused449]	0
[unused450]	0
[unused451]	0
[unused452]	0
[unused453]	0
[unused454]	0
[unused455]	0
[unused456]	0
[unused457]	0
[unused458]	0
[unused459]	0
[unused460]	0
[unused461]	0
[unused462]	0
[unused463]	0
[unused464]	0
[unused465]	0
[unused466]	0
[unused467]	0
[unused468]	0
[unused469]	0
[unused470]	0
[unused471]	0
[unused472]	0
[unused473]	0
[unused474]	0
[unused475]	0
[unused476]	0
[unused477]	0
[unused478]	0
[unused479]	0
[unused480]	0
[unused481]	0
[unused482]	0
[unused483]	0
[unused484]	0
[unused485]	0
[unused486]	0
[unused487]	0
[unused488]	0
[unused489]	0
[unused490]	0
[unused491]	0
[unused492]	0
[unused493]	0
[unused494]	0
[unused495]	0
[unused496]	0
[unused497]	0
[unused498]	0
[unused499]	0
[unused500]	0
[unused501]	0
[unused502]	0
[unused503]	0
[unused504]	0
[unused505]	0
[unused506]	0
[unused507]	0
[unused508]	0
[unused509]	0
[unused510]	0
[unused511]	0
[unused512]	0
[unused513]	0
[unused514]	0
[unused515]	0
[unused516]	0
[unused517]	0
[unused518]	0
[unused519]	0
[unused520]	0
[unused521]	0
[unused522]	0
[unused523]	0
[unused524]	0
[unused525]	0
[unused526]	0
[unused527]	0
[unused528]	0
[unused529]	0
[unused530]	0
[unused531]	0
[unused532]	0
[unused533]	0
[unused534]	0
[unused535]	0
[unused536]	0
[unused537]	0
[unused538]	0
[unused539]	0
[unused540]	0
[unused541]	0
[unused542]	0
[unused543]	0
[unused544]	0
[unused545]	0
[unused546]	0
[unused547]	0
[unused548]	0
[unused549]	0
[unused550]	0
[unused551]	0
[unused552]	0
[unused553]	0
[unused554]	0
[unused555]	0
[unused556]	0
[unused557]	0
[unused558]	0
[unused559]	0
[unused560]	0
[unused561]	0
[unused562]	0
[unused563]	0
[unused564]	0
[unused565]	0
[unused566]	0
[unused567]	0
[unused568]	0
[unused569]	0
[unused570]	0
[unused571]	0
[unused572]	0
[unused573]	0
[unused574]	0
[unused575]	0
[unused576]	0
[unused577]	0
[unused578]	0
[unused579]	0
[unused580]	0
[unused581]	0
[unused582]	0
[unused583]	0
[unused584]	0
[unused585]	0
[unused586]	0
[unused587]	0
[unused588]	0
[unused589]	0
[unused590]	0
[unused591]	0
[unused592]	0
[unused593]	0
[unused594]	0
[unused595]	0
[unused596]	0
[unused597]	0
[unused598]	0
[unused599]	0
[unused600]	0
[unused601]	0
[unused602]	0
[unused603]	0
[unused604]	0
[unused605]	0
[unused606]	0
[unused607]	0
[unused608]	0
[unused609]	0
[unused610]	0
[unused611]	0
[unused612]	0
[unused613]	0
[unused614]	0
[unused615]	0
[unused616]	0
[unused617]	0
[unused618]	0
[unused619]	0
[unused620]	0
[unused621]	0
[unused622]	0
[unused623]	0
[unused624]	0
[unused625]	0
[unused626]	0
[unused627]	0
[unused628]	0
[unused629]	0
[unused630]	0
[unused631]	0
[unused632]	0
[unused633]	0
[unused634]	0
[unused635]	0
[unused636]	0
[unused637]	0
[unused638]	0
[unused639]	0
[unused640]	0
[unused641]	0
[unused642]	0
[unused643]	0
[unused644]	0
[unused645]	0
[unused646]	0
[unused647]	0
[unused648]	0
[unused649]	0
[unused650]	0
[unused651]	0
[unused652]	0
[unused653]	0
[unused654]	0
[unused655]	0
[unused656]	0
[unused657]	0
[unused658]	0
[unused659]	0
[unused660]	0
[unused661]	0
[unused662]	0
[unused663]	0
[unused664]	0
[unused665]	0
[unused666]	0
[unused667]	0
[unused668]	0
[unused669]	0
[unused670]	0
[unused671]	0
[unused672]	0
[unused673]	0
[unused674]	0
[unused675]	0
[unused676]	0
[unused677]	0
[unused678]	0
[unused679]	0
[unused680]	0
[unused681]	0
[unused682]	0
[unused683]	0
[unused684]	0
[unused685]	0
[unused686]	0
[unused687]	0
[unused688]	0
[unused689]	0
[unused690]	0
[unused691]	0
[unused692]	0
[unused693]	0
[unused694]	0
[unused695]	0
[unused696]	0
[unused697]	0
[unused698]	0
[unused699]	0
[unused700]	0
[unused701]	0
[unused702]	0
[unused703]	0
[unused704]	0
[unused705]	0
[unused706]	0
[unused707]	0
[unused708]	0
[unused709]	0
[unused710]	0
[unused711]	0
[unused712]	0
[unused713]	0
[unused714]	0
[unused715]	0
[unused716]	0
[unused717]	0
[unused718]	0
[unused719]	0
[unused720]	0
[unused721]	0
[unused722]	0
[unused723]	0
[unused724]	0
[unused725]	0
[unused726]	0
[unused727]	0
[unused728]	0
[unused729]	0
[unused730]	0
[unused731]	0
[unused732]	0
[unused733]	0
[unused734]	0
[unused735]	0
[unused736]	0
[unused737]	0
[unused738]	0
[unused739]	0
[unused740]	0
[unused741]	0
[unused742]	0
[unused743]	0
[unused744]	0
[unused745]	0
[unused746]	0
[unused747]	0
[unused748]	0
[unused749]	0
[unused750]	0
[unused751]	0
[unused752]	0
[unused753]	0
[unused754]	0
[unused755]	0
[unused756]	0
[unused757]	0
[unused758]	0
[unused759]	0
[unused760]	0
[unused761]	0
[unused762]	0
[unused763]	0
[unused764]	0
[unused765]	0
[unused766]	0
[unused767]	0
[unused768]	0
[unused769]	0
[unused770]	0
[unused771]	0
[unused772]	0
[unused773]	0
[unused774]	0
[unused775]	0
[unused776]	0
[unused777]	0
[unused778]	0
[unused779]	0
[unused780]	0
[unused781]	0
[unused782]	0
[unused783]	0
[unused784]	0
[unused785]	0
[unused786]	0
[unused787]	0
[unused788]	0
[unused789]	0
[unused790]	0
[unused791]	0
[unused792]	0
[unused793]	0
[unused794]	0
[unused795]	0
[unused796]	0
[unused797]	0
[unused798]	0
[unused799]	0
[unused800]	0
[unused801]	0
[unused802]	0
[unused803]	0
[unused804]	0
[unused805]	0
[unused806]	0
[unused807]	0
[unused808]	0
[unused809]	0
[unused810]	0
[unused811]	0
[unused812]	0
[unused813]	0
[unused814]	0
[unused815]	0
[unused816]	0
[unused817]	0
[unused818]	0
[unused819]	0
[unused820]	0
[unused821]	0
[unused822]	0
[unused823]	0
[unused824]	0
[unused825]	0
[unused826]	0
[unused827]	0
[unused828]	0
[unused829]	0
[unused830]	0
[unused831]	0
[unused832]	0
[unused833]	0
[unused834]	0
[unused835]	0
[unused836]	0
[unused837]	0
[unused838]	0
[unused839]	0
[unused840]	0
[unused841]	0
[unused842]	0
[unused843]	0
[unused844]	0
[unused845]	0
[unused846]	0
[unused847]	0
[unused848]	0
[unused849]	0
[unused850]	0
[unused851]	0
[unused852]	0
[unused853]	0
[unused854]	0
[unused855]	0
[unused856]	0
[unused857]	0
[unused858]	0
[unused859]	0
[unused860]	0
[unused861]	0
[unused862]	0
[unused863]	0
[unused864]	0
[unused865]	0
[unused866]	0
[unused867]	0
[unused868]	0
[unused869]	0
[unused870]	0
[unused871]	0
[unused872]	0
[unused873]	0
[unused874]	0
[unused875]	0
[unused876]	0
[unused877]	0
[unused878]	0
[unused879]	0
[unused880]	0
[unused881]	0
[unused882]	0
[unused883]	0
[unused884]	0
[unused885]	0
[unused886]	0
[unused887]	0
[unused888]	0
[unused889]	0
[unused890]	0
[unused891]	0
[unused892]	0
[unused893]	0
[unused894]	0
[unused895]	0
[unused896]	0
[unused897]	0
[unused898]	0
[unused899]	0
[unused900]	0
[unused901]	0
[unused902]	0
[unused903]	0
[unused904]	0
[unused905]	0
[unused906]	0
[unused907]	0
[unused908]	0
[unused909]	0
[unused910]	0
[unused911]	0
[unused912]	0
[unused913]	0
[unused914]	0
[unused915]	0
[unused916]	0
[unused917]	0
[unused918]	0
[unused919]	0
[unused920]	0
[unused921]	0
[unused922]	0
[unused923]	0
[unused924]	0
[unused925]	0
[unused926]	0
[unused927]	0
[unused928]	0
[unused929]	0
[unused930]	0
[unused931]	0
[unused932]	0
[unused933]	0
[unused934]	0
[unused935]	0
[unused936]	0
[unused937]	0
[unused938]	0
[unused939]	0
[unused940]	0
[unused941]	0
[unused942]	0
[unused943]	0
[unused944]	0
[unused945]	0
[unused946]	0
[unused947]	0
[unused948]	0
[unused949]	0
[unused950]	0
[unused951]	0
[unused952]	0
[unused953]	0
[unused954]	0
[unused955]	0
[unused956]	0
[unused957]	0
[unused958]	0
[unused959]	0
[unused960]	0
[unused961]	0
[unused962]	0
[unused963]	0
[unused964]	0
[unused965]	0
[unused966]	0
[unused967]	0
[unused968]	0
[unused969]	0
[unused970]	0
[unused971]	0
[unused972]	0
[unused973]	0
[unused974]	0
[unused975]	0
[unused976]	0
[unused977]	0
[unused978]	0
[unused979]	0
[unused980]	0
[unused981]	0
[unused982]	0
[unused983]	0
[unused984]	0
[unused985]	0
[unused986]	0
[unused987]	0
[unused988]	0
[unused989]	0
[unused990]	0
[unused991]	0
[unused992]	0
[unused993]	0
[unused994]	0
[unused995]	0
[unused996]	0
[unused997]	0
[unused998]	0
[unused999]	0
▁이	-0
▁있	-1
▁대	-2
으로	-3
했다	-4
에서	-5
▁지	-6
▁1	-7
▁수	-8
▁사	-9
▁기	-10
▁전	-11
▁2	-12
▁것	-13
▁한	-14
▁그	-15
▁가	-16
▁정	-17
▁등	-18
▁시	-19
▁있다	-20
하는	-21
▁아	-22
▁보	-23
하고	-24
▁고	-25
▁제	-26
이다	-27
▁중	-28
▁주	-29
▁경	-30
▁자	-31
▁공	-32
▁위	-33
▁국	-34
▁인	-35
▁일	-36
▁부	-37
▁나	-38
▁다	-39
▁상	-40
▁관	-41
▁의	-42
▁하	-43
▁3	-44
▁내	-45
▁조	-46
▁오	-47
니다	-48
▁미	-49
▁말	-50
▁비	-51
▁서	-52
▁모	-53
▁유	-54
▁20	-55
▁최	-56
▁소	-57
▁개	-58
▁해	-59
▁여	-60
▁않	-61
▁연	-62
▁선	-63
다고	-64
▁신	-65
▁통	-66
▁발	-67
▁마	-68
▁문	-69
▁있는	-70
▁없	-71
었다	-72
▁강	-73
▁구	-74
▁김	-75
라고	-76
▁5	-77
▁방	-78
▁어	-79
▁우	-80
▁도	-81
▁4	-82
▁만	-83
▁안	-84
지만	-85
▁현	-86
▁동	-87
▁지난	-88
▁예	-89
한다	-90
까지	-91
▁진	-92
▁바	-93
들이	-94
▁성	-95
▁때	-96
면서	-97
▁세	-98
▁실	-99
▁생	-100
▁교	-101
▁당	-102
▁무	-103
▁장	-104
▁거	-105
00	-106
▁영	-107
▁분	-108
▁추	-109
에게	-110
▁것으로	-111
▁밝	-112
▁불	-113
▁결	-114
▁재	-115
▁원	-116
부터	-117
▁노	-118
▁대한	-119
▁계	-120
다는	-121
▁6	-122
▁따	-123
▁확	-124
▁특	-125
습니다	-126
▁반	-127
▁받	-128
▁후	-129
▁것이	-130
적인	-131
에는	-132
적으로	-133
▁남	-134
▁올	-135
▁차	-136
▁한국	-137
▁스	-138
▁더	-139
▁회	-140
▁매	-141
▁북	-142
▁말했다	-143
▁적	-144
통령	-145
▁위해	-146
▁열	-147
▁밝혔	-148
▁평	-149
▁대통령	-150
▁설	-151
▁또	-152
▁입	-153
▁과	-154
▁출	-155
▁201	-156
된다	-157
▁서울	-158
▁단	-159
하기	-160
▁7	-161
▁청	-162
▁밝혔다	-163
▁참	-164
하게	-165
라는	-166
▁건	-167
됐다	-168
▁박	-169
들은	-170
▁8	-171
▁감	-172
▁알	-173
▁정부	-174
▁들	-175
▁앞	-176
▁금	-177
▁했다	-178
▁통해	-179
▁10	-180
▁행	-181
▁직	-182
▁미국	-183
들의	-184
장은	-185
▁외	-186
▁많	-187
▁대해	-188
▁같	-189
▁포	-190
▁투	-191
▁달	-192
▁검	-193
▁피	-194
▁학	-195
▁되	-196
았다	-197
▁역	-198
▁9	-199
▁배	-200
▁운	-201
▁두	-202
▁물	-203
▁기자	-204
▁증	-205
▁요	-206
▁함	-207
위원	-208
▁민	-209
자는	-210
▁이번	-211
▁판	-212
▁우리	-213
▁총	-214
▁높	-215
▁저	-216
▁할	-217
▁작	-218
▁대표	-219
▁및	-220
▁집	-221
였다	-222
▁임	-223
▁관련	-224
▁파	-225
▁점	-226
▁사람	-227
▁양	-228
▁산	-229
▁이어	-230
▁관계	-231
▁못	-232
▁때문	-233
장을	-234
▁새	-235
▁활	-236
▁협	-237
사를	-238
▁프	-239
▁법	-240
▁명	-241
▁문제	-242
▁함께	-243
하지	-244
▁에	-245
▁초	-246
▁지역	-247
▁한다	-248
▁북한	-249
▁목	-250
▁19	-251
▁필	-252
▁뒤	-253
도록	-254
▁업	-255
▁등을	-256
▁중국	-257
▁화	-258
▁간	-259
▁아니	-260
에도	-261
▁사업	-262
▁위한	-263
장이	-264
▁본	-265
▁가능	-266
▁처	-267
▁이날	-268
에서는	-269
하다	-270
▁변	-271
▁지원	-272
▁심	-273
기를	-274
▁진행	-275
▁합	-276
▁경우	-277
▁하는	-278
▁규	-279
▁종	-280
억원	-281
▁이상	-282
▁각	-283
▁의원	-284
▁것이다	-285
▁맞	-286
졌다	-287
▁삼	-288
▁취	-289
▁그러	-290
▁체	-291
리는	-292
대로	-293
▁게	-294
▁환	-295
▁기업	-296
▁며	-297
으며	-298
▁것은	-299
▁데	-300
들을	-301
▁약	-302
▁광	-303
되는	-304
▁따라	-305
▁살	-306
▁국민	-307
▁생각	-308
▁그는	-309
보다	-310
라며	-311
▁200	-312
▁논	-313
▁12	-314
리고	-315
▁이후	-316
▁들어	-317
▁지난해	-318
회의	-319
리를	-320
▁호	-321
▁채	-322
▁치	-323
▁로	-324
▁11	-325
▁같은	-326
만원	-327
하며	-328
▁근	-329
▁충	-330
▁손	-331
지는	-332
▁후보	-333
▁필요	-334
▁시작	-335
▁최근	-336
▁군	-337
▁올해	-338
▁예정	-339
이나	-340
해야	-341
▁좋	-342
▁돌	-343
▁크	-344
▁자신	-345
▁창	-346
▁계획	-347
▁트	-348
▁드	-349
▁속	-350
▁A	-351
000	-352
▁국내	-353
▁가장	-354
▁투자	-355
성을	-356
지를	-357
비스	-358
기업	-359
▁교육	-360
▁현재	-361
하면	-362
▁담	-363
▁순	-364
▁줄	-365
▁사회	-366
입니다	-367
▁설명	-368
▁언	-369
▁하고	-370
▁표	-371
▁경제	-372
▁상황	-373
▁독	-374
▁카	-375
▁코	-376
▁리	-377
▁늘	-378
성이	-379
서는	-380
▁모두	-381
력을	-382
사는	-383
▁사용	-384
▁편	-385
▁넘	-386
▁세계	-387
▁경찰	-388
▁일본	-389
▁30	-390
▁다른	-391
▁하지만	-392
▁것을	-393
▁국가	-394
자가	-395
▁걸	-396
▁찾	-397
기도	-398
▁은	-399
▁복	-400
▁타	-401
▁운영	-402
▁권	-403
▁결과	-404
▁만들	-405
는데	-406
▁아이	-407
▁사실	-408
▁큰	-409
위원회	-410
사가	-411
▁농	-412
▁완	-413
화를	-414
했다고	-415
▁눈	-416
하면서	-417
▁잘	-418
▁준	-419
▁대상	-420
▁태	-421
하겠	-422
▁관계자는	-423
이고	-424
▁는	-425
▁있다고	-426
되고	-427
르면	-428
▁누	-429
정을	-430
▁연구	-431
▁S	-432
▁을	-433
▁때문에	-434
▁시장	-435
▁폭	-436
▁홍	-437
▁이용	-438
사업	-439
기에	-440
부는	-441
▁다양	-442
▁이라고	-443
▁있어	-444
▁15	-445
▁특히	-446
▁발표	-447
▁추진	-448
▁제공	-449
▁형	-450
▁향	-451
▁온	-452
▁프로	-453
▁책	-454
이라고	-455
▁오후	-456
시아	-457
지고	-458
▁절	-459
▁있었다	-460
▁없다	-461
씨는	-462
▁핵	-463
▁전문	-464
센터	-465
시간	-466
▁식	-467
▁나타	-468
▁를	-469
▁음	-470
▁삼성	-471
들에게	-472
▁항	-473
▁참여	-474
왔다	-475
▁개발	-476
▁금융	-477
▁될	-478
▁피해	-479
▁오전	-480
▁브	-481
▁그러나	-482
▁따르면	-483
운데	-484
▁측	-485
▁조사	-486
▁정책	-487
▁열린	-488
기가	-489
▁없는	-490
▁정치	-491
▁보고	-492
▁않는	-493
▁글	-494
▁기록	-495
▁지금	-496
▁기술	-497
▁허	-498
의를	-499
▁승	-500
▁하나	-501
이었다	-502
▁벌	-503
▁토	-504
▁번	-505
상을	-506
거나	-507
▁부산	-508
▁했	-509
▁많은	-510
▁날	-511
▁정도	-512
▁이런	-513
▁메	-514
▁가운데	-515
▁확인	-516
스트	-517
▁다시	-518
▁K	-519
▁다양한	-520
▁당시	-521
▁발생	-522
▁확대	-523
▁라	-524
▁민주	-525
▁갖	-526
▁철	-527
▁힘	-528
처럼	-529
▁내용	-530
▁질	-531
명이	-532
▁접	-533
▁시간	-534
▁13	-535
리가	-536
▁곳	-537
▁강조	-538
▁디	-539
자의	-540
▁혐	-541
▁18	-542
▁검찰	-543
▁증가	-544
▁서비스	-545
▁것이라고	-546
▁마련	-547
▁된다	-548
▁국회	-549
레이	-550
▁친	-551
▁그런	-552
안을	-553
▁평가	-554
▁아니라	-555
시장	-556
▁등의	-557
▁용	-558
▁최고	-559
▁분석	-560
▁야	-561
▁이를	-562
로운	-563
렸다	-564
▁알려	-565
▁C	-566
▁백	-567
▁사건	-568
▁있다는	-569
▁이에	-570
▁지적	-571
랜드	-572
▁얼	-573
▁등이	-574
▁산업	-575
▁기대	-576
▁병	-577
▁안전	-578
▁25	-579
학교	-580
원은	-581
▁애	-582
들과	-583
▁효	-584
▁사이	-585
▁제품	-586
▁전망	-587
▁정상	-588
▁L	-589
▁베	-590
가는	-591
▁판매	-592
사의	-593
▁시민	-594
▁수준	-595
▁커	-596
이는	-597
명을	-598
▁낮	-599
▁예정이다	-600
▁있도록	-601
▁주장	-602
▁최대	-603
자를	-604
났다	-605
도를	-606
▁전국	-607
▁모든	-608
▁교수	-609
에서도	-610
▁장관	-611
▁청와	-612
▁국제	-613
하여	-614
▁학생	-615
▁급	-616
▁현대	-617
한다고	-618
▁지방	-619
회를	-620
주의	-621
인다	-622
▁있을	-623
▁여러	-624
▁요구	-625
▁포함	-626
▁이유	-627
▁청와대	-628
▁결정	-629
▁자유	-630
▁축	-631
▁위원	-632
▁버	-633
▁천	-634
▁면	-635
▁기준	-636
▁B	-637
▁오는	-638
▁문화	-639
▁있었	-640
▁16	-641
은행	-642
▁강화	-643
기로	-644
▁규모	-645
▁추가	-646
▁막	-647
원이	-648
교육	-649
인이	-650
▁끝	-651
라도	-652
▁14	-653
치를	-654
▁첫	-655
기는	-656
▁노동	-657
▁네	-658
▁설명했다	-659
▁느	-660
▁직접	-661
▁처음	-662
▁다음	-663
▁일부	-664
▁공동	-665
장의	-666
렇게	-667
으나	-668
▁한편	-669
▁않고	-670
▁여성	-671
뉴스	-672
▁폐	-673
▁남북	-674
회담	-675
▁I	-676
▁방문	-677
럼프	-678
▁정보	-679
위를	-680
▁개선	-681
식을	-682
페이	-683
▁모습	-684
▁트럼프	-685
원을	-686
▁선거	-687
기관	-688
으면	-689
대표	-690
▁예상	-691
▁동안	-692
마트	-693
했습니다	-694
동을	-695
▁된	-696
▁상승	-697
▁이미	-698
▁고객	-699
▁그리고	-700
▁범	-701
▁높은	-702
▁쓰	-703
▁대통령은	-704
▁빠	-705
▁100	-706
▁길	-707
▁구성	-708
▁않은	-709
▁17	-710
▁갈	-711
리아	-712
▁잡	-713
▁주요	-714
▁대학	-715
▁패	-716
연구	-717
▁공개	-718
했던	-719
인은	-720
▁송	-721
▁지속	-722
▁중요	-723
▁볼	-724
▁전체	-725
그램	-726
재인	-727
제로	-728
▁과정	-729
▁참석	-730
이라는	-731
▁중심	-732
▁영향	-733
▁앞으로	-734
했고	-735
▁있습니다	-736
▁활용	-737
지역	-738
▁떨	-739
▁난	-740
겠다	-741
금을	-742
▁와	-743
▁계속	-744
▁씨	-745
▁환경	-746
▁적용	-747
제를	-748
▁새로운	-749
▁주민	-750
▁혐의	-751
▁어려	-752
▁받아	-753
▁성장	-754
▁거래	-755
▁해당	-756
▁관심	-757
▁문재인	-758
▁잠	-759
산업	-760
도로	-761
▁준비	-762
▁0	-763
▁경기	-764
▁24	-765
▁기존	-766
▁학교	-767
▁23	-768
▁T	-769
어나	-770
명의	-771
▁수사	-772
▁싶	-773
▁월	-774
▁앞서	-775
일부터	-776
▁별	-777
▁않았다	-778
▁강조했다	-779
혁신	-780
▁테	-781
▁상태	-782
▁계획이다	-783
▁휴	-784
▁대통령이	-785
▁또한	-786
▁이뤄	-787
해서	-788
▁해외	-789
▁목표	-790
일까지	-791
▁울	-792
▁50	-793
세를	-794
▁수도	-795
▁생산	-796
▁너	-797
▁소비	-798
스템	-799
▁떠	-800
인을	-801
▁등에	-802
▁제주	-803
▁인터	-804
력이	-805
원의	-806
▁,	-807
▁분야	-808
림픽	-809
▁의견	-810
단체	-811
▁22	-812
▁플	-813
▁자신의	-814
▁머	-815
▁희	-816
▁존	-817
개월	-818
▁몰	-819
▁우려	-820
▁유지	-821
▁많이	-822
▁21	-823
▁내년	-824
▁보인다	-825
▁가격	-826
▁특별	-827
도가	-828
▁황	-829
▁27	-830
▁.	-831
▁M	-832
▁먹	-833
▁경쟁	-834
▁없이	-835
▁만큼	-836
▁기간	-837
▁업무	-838
장과	-839
▁비롯	-840
▁판단	-841
▁도시	-842
▁역시	-843
인의	-844
▁마음	-845
장에서	-846
▁관리	-847
하기로	-848
▁몸	-849
▁사진	-850
정부	-851
▁때문이다	-852
▁적극	-853
대를	-854
▁육	-855
▁돌아	-856
▁전했다	-857
▁떨어	-858
▁압	-859
▁개최	-860
시설	-861
▁찾아	-862
▁책임	-863
▁선정	-864
는다	-865
점을	-866
동차	-867
수를	-868
▁윤	-869
▁논의	-870
▁블	-871
▁만들어	-872
▁지난달	-873
▁사고	-874
▁프로그램	-875
▁않았	-876
스는	-877
▁응	-878
▁한다고	-879
지가	-880
▁극	-881
▁일반	-882
료를	-883
▁받고	-884
기술	-885
시에	-886
▁국정	-887
▁인사	-888
▁26	-889
▁긴	-890
▁라고	-891
▁미래	-892
문화	-893
관리	-894
▁의미	-895
주는	-896
▁물론	-897
▁보도	-898
전을	-899
▁어떤	-900
▁대비	-901
▁엄	-902
동안	-903
▁죽	-904
▁놓	-905
▁28	-906
▁침	-907
▁오늘	-908
▁광주	-909
▁더욱	-910
냈다	-911
▁이는	-912
▁해결	-913
장에	-914
사에	-915
▁글로	-916
▁성공	-917
▁탄	-918
선거	-919
▁악	-920
▁설치	-921
▁됐다	-922
업체	-923
▁있고	-924
▁의원은	-925
▁골	-926
▁고려	-927
▁자리	-928
▁키	-929
이트	-930
밖에	-931
▁상품	-932
▁제시	-933
▁재판	-934
▁맡	-935
▁확보	-936
시키	-937
파트	-938
자리	-939
▁이야	-940
▁밀	-941
되지	-942
선을	-943
▁아닌	-944
▁경영	-945
▁아직	-946
▁외국	-947
시는	-948
▁좋은	-949
▁중소	-950
▁나오	-951
▁인천	-952
가지	-953
▁귀	-954
▁비판	-955
자로	-956
▁정부가	-957
권을	-958
정보	-959
▁대상으로	-960
원에	-961
한다는	-962
▁풀	-963
▁40	-964
이었	-965
▁건강	-966
라인	-967
▁나는	-968
▁뜻	-969
민주	-970
▁대표는	-971
▁크게	-972
진다	-973
그룹	-974
하려	-975
▁탈	-976
▁나온	-977
▁가족	-978
르는	-979
이며	-980
▁뿐	-981
▁도입	-982
▁등으로	-983
▁스마트	-984
▁글로벌	-985
▁러	-986
▁따른	-987
부가	-988
당은	-989
▁의혹	-990
▁답	-991
▁차량	-992
이터	-993
나라	-994
롯데	-995
▁시행	-996
서를	-997
▁2018	-998
드는	-999
▁그의	-1000
부를	-1001
▁대통령의	-1002
개발	-1003
▁활동	-1004
자들이	-1005
▁매출	-1006
▁드러	-1007
▁돈	-1008
계를	-1009
▁역할	-1010
▁생활	-1011
▁인정	-1012
가를	-1013
사회	-1014
▁평화	-1015
▁각각	-1016
▁레	-1017
▁부분	-1018
▁효과	-1019
▁건설	-1020
▁개인	-1021
▁조성	-1022
▁방송	-1023
▁업체	-1024
▁그래	-1025
년간	-1026
정책	-1027
▁언론	-1028
사와	-1029
지원	-1030
▁관광	-1031
▁보여	-1032
▁바로	-1033
▁만나	-1034
▁합의	-1035
▁브랜드	-1036
▁덧	-1037
▁대구	-1038
▁실시	-1039
▁구조	-1040
▁제기	-1041
지에	-1042
▁대응	-1043
▁협력	-1044
▁출시	-1045
▁롯데	-1046
▁터	-1047
▁신청	-1048
수가	-1049
▁중앙	-1050
▁혁신	-1051
과의	-1052
▁부담	-1053
▁자체	-1054
▁보면	-1055
▁전략	-1056
부분	-1057
▁숨	-1058
▁G	-1059
치는	-1060
▁예산	-1061
▁N	-1062
케이	-1063
▁받은	-1064
불어	-1065
▁핵심	-1066
▁외교	-1067
▁둘	-1068
▁관련해	-1069
자인	-1070
이라	-1071
▁홈	-1072
▁더불어	-1073
▁집중	-1074
▁공공	-1075
정은	-1076
▁정부는	-1077
▁먼	-1078
▁이름	-1079
▁청년	-1080
▁콘	-1081
▁29	-1082
▁정부의	-1083
▁얻	-1084
▁덧붙	-1085
원에서	-1086
▁그것	-1087
전자	-1088
스를	-1089
▁아무	-1090
▁LG	-1091
▁원내	-1092
반도	-1093
지도	-1094
▁어린	-1095
▁고용	-1096
가가	-1097
경제	-1098
▁즐	-1099
▁뉴	-1100
전히	-1101
20	-1102
물을	-1103
▁행정	-1104
겠다고	-1105
▁어떻	-1106
▁가능성이	-1107
▁이제	-1108
▁발전	-1109
▁풍	-1110
▁기관	-1111
업을	-1112
투자	-1113
▁것도	-1114
▁않을	-1115
▁혼	-1116
했지만	-1117
▁위치	-1118
환경	-1119
상이	-1120
들도	-1121
▁석	-1122
▁공급	-1123
문을	-1124
▁방식	-1125
▁검토	-1126
▁노력	-1127
▁헌	-1128
이어	-1129
증권	-1130
▁P	-1131
▁논란	-1132
▁하지	-1133
감을	-1134
▁촉	-1135
약을	-1136
▁수출	-1137
한국	-1138
▁클	-1139
되어	-1140
▁어떻게	-1141
▁팔	-1142
하겠다고	-1143
사로	-1144
▁하락	-1145
▁되는	-1146
움을	-1147
▁다만	-1148
▁선보	-1149
▁아니다	-1150
▁국민의	-1151
다가	-1152
▁이라며	-1153
▁대부분	-1154
▁아파트	-1155
▁반대	-1156
없이	-1157
▁방침	-1158
▁덧붙였다	-1159
▁넘어	-1160
▁2016	-1161
▁쉽	-1162
▁영화	-1163
▁전문가	-1164
했다는	-1165
▁끌	-1166
▁민주당	-1167
▁이동	-1168
▁또는	-1169
조사	-1170
▁참가	-1171
▁2015	-1172
▁있지만	-1173
▁지지	-1174
▁영업	-1175
합니다	-1176
▁스타	-1177
▁개정	-1178
▁이해	-1179
▁알려졌다	-1180
▁코스	-1181
▁구축	-1182
니까	-1183
대의	-1184
▁직원	-1185
위는	-1186
▁상당	-1187
▁쪽	-1188
통신	-1189
▁방법	-1190
하다고	-1191
▁평균	-1192
▁러시아	-1193
▁통합	-1194
▁만에	-1195
▁징	-1196
▁있으며	-1197
씨가	-1198
▁내가	-1199
▁한다는	-1200
▁최저	-1201
▁한반도	-1202
▁시스템	-1203
대에	-1204
소를	-1205
▁행사	-1206
▁기능	-1207
▁변화	-1208
▁공정	-1209
▁펼	-1210
▁강원	-1211
갔다	-1212
▁하루	-1213
▁왕	-1214
▁듯	-1215
▁경남	-1216
대가	-1217
▁199	-1218
▁견	-1219
▁품	-1220
▁2017	-1221
▁조직	-1222
▁뛰	-1223
▁31	-1224
30	-1225
▁공식	-1226
▁없었다	-1227
▁주변	-1228
▁SK	-1229
▁대책	-1230
▁과정에서	-1231
▁선택	-1232
▁내려	-1233
도는	-1234
▁조선	-1235
▁왜	-1236
▁우선	-1237
스로	-1238
수는	-1239
▁이렇게	-1240
▁수익	-1241
▁즉	-1242
하도록	-1243
▁과거	-1244
▁발견	-1245
▁유럽	-1246
동산	-1247
▁몇	-1248
▁너무	-1249
▁북한의	-1250
▁결국	-1251
원으로	-1252
관계	-1253
▁감소	-1254
▁돼	-1255
장으로	-1256
보고	-1257
▁캐	-1258
▁반영	-1259
▁기다	-1260
▁안정	-1261
음을	-1262
▁E	-1263
▁자동차	-1264
▁혐의로	-1265
▁있다며	-1266
▁사랑	-1267
너지	-1268
▁주택	-1269
▁문제가	-1270
▁나타났다	-1271
년부터	-1272
쳤다	-1273
리에	-1274
▁서울시	-1275
▁공연	-1276
▁근로	-1277
마다	-1278
회에서	-1279
▁기념	-1280
▁구속	-1281
행을	-1282
▁어느	-1283
▁요청	-1284
▁경기도	-1285
▁향후	-1286
회는	-1287
금융	-1288
거래	-1289
다며	-1290
▁국방	-1291
▁불법	-1292
▁지나	-1293
▁암	-1294
▁전달	-1295
달러	-1296
▁신고	-1297
▁자유한국	-1298
어난	-1299
▁격	-1300
▁의료	-1301
▁매우	-1302
도시	-1303
▁꾸	-1304
위에	-1305
▁필요한	-1306
▁일자리	-1307
▁보호	-1308
▁최종	-1309
▁겨	-1310
▁D	-1311
▁위험	-1312
보를	-1313
▁그렇	-1314
▁삶	-1315
▁일이	-1316
트를	-1317
▁지적했다	-1318
회가	-1319
▁인상	-1320
▁이전	-1321
▁경험	-1322
▁어렵	-1323
머니	-1324
▁얼굴	-1325
▁국무	-1326
▁사무	-1327
이가	-1328
▁전환	-1329
자들의	-1330
사일	-1331
훈련	-1332
로부터	-1333
국의	-1334
▁연합	-1335
▁성과	-1336
▁기획	-1337
▁퇴	-1338
본부	-1339
▁착	-1340
▁올라	-1341
▁먼저	-1342
▁기반	-1343
▁평창	-1344
주택	-1345
▁움	-1346
▁놀	-1347
▁문제를	-1348
▁지급	-1349
▁나라	-1350
▁목소	-1351
리스	-1352
▁중인	-1353
▁민간	-1354
당이	-1355
관은	-1356
비를	-1357
에선	-1358
▁발언	-1359
▁주장했다	-1360
▁그동안	-1361
▁비교	-1362
▁두고	-1363
로는	-1364
▁반면	-1365
▁본격	-1366
도의	-1367
▁봉	-1368
▁최초	-1369
▁제작	-1370
안전	-1371
이를	-1372
▁정상회담	-1373
▁자연	-1374
▁받았다	-1375
▁않아	-1376
겠다는	-1377
▁영향을	-1378
▁밤	-1379
품을	-1380
거리	-1381
▁종합	-1382
▁중심으로	-1383
▁갑	-1384
▁워	-1385
▁60	-1386
정이	-1387
반기	-1388
▁공간	-1389
지로	-1390
섰다	-1391
▁사람이	-1392
▁컨	-1393
▁사회적	-1394
▁기본	-1395
▁보유	-1396
하다는	-1397
▁얘	-1398
▁말을	-1399
▁현지	-1400
성과	-1401
▁나서	-1402
▁실적	-1403
▁대형	-1404
이지	-1405
▁갖고	-1406
▁차지	-1407
▁원내대표	-1408
▁F	-1409
▁감독	-1410
두고	-1411
차를	-1412
▁붙	-1413
이익	-1414
억원을	-1415
분기	-1416
단을	-1417
▁인간	-1418
▁라는	-1419
▁부동산	-1420
▁기록했다	-1421
▁채용	-1422
▁은행	-1423
스가	-1424
제가	-1425
▁수요	-1426
▁흐	-1427
하거나	-1428
▁중소기업	-1429
▁전해	-1430
올림픽	-1431
▁모델	-1432
자와	-1433
▁웃	-1434
▁가까	-1435
▁c	-1436
▁대화	-1437
▁상대	-1438
▁방향	-1439
▁현장	-1440
▁좀	-1441
사에서	-1442
▁내부	-1443
▁더불어민주	-1444
50	-1445
▁미국의	-1446
▁구체	-1447
▁t	-1448
▁전시	-1449
▁출신	-1450
임을	-1451
실을	-1452
▁무엇	-1453
▁그녀	-1454
▁우수	-1455
운동	-1456
스의	-1457
되면	-1458
▁높아	-1459
▁보험	-1460
▁공격	-1461
▁시설	-1462
▁대한민	-1463
▁인터넷	-1464
▁업계	-1465
▁선수	-1466
▁실제	-1467
▁있게	-1468
▁이같	-1469
▁낙	-1470
▁회의	-1471
▁에서	-1472
임금	-1473
▁이와	-1474
▁제출	-1475
인데	-1476
▁경찰은	-1477
▁대신	-1478
▁변호	-1479
▁거쳐	-1480
▁않는다	-1481
▁대해서는	-1482
▁있던	-1483
▁주목	-1484
▁역할을	-1485
▁구매	-1486
르고	-1487
▁사례	-1488
▁없어	-1489
랐다	-1490
느냐	-1491
▁해야	-1492
분의	-1493
▁체험	-1494
▁제대로	-1495
▁교통	-1496
▁방안	-1497
▁숙	-1498
▁누구	-1499
월부터	-1500
▁전기	-1501
▁소속	-1502
있는	-1503
단은	-1504
자들은	-1505
▁깨	-1506
▁소개	-1507
디어	-1508
▁움직	-1509
▁역사	-1510
소년	-1511
▁설립	-1512
보험	-1513
스크	-1514
▁분위	-1515
▁이들은	-1516
▁)	-1517
▁사전	-1518
▁대변	-1519
치고	-1520
대는	-1521
▁지정	-1522
복지	-1523
개를	-1524
▁인근	-1525
하던	-1526
▁그렇게	-1527
인지	-1528
▁2014	-1529
▁신규	-1530
▁활성	-1531
하자	-1532
경찰	-1533
▁독일	-1534
▁보수	-1535
▁얼마	-1536
▁입장을	-1537
▁항공	-1538
▁사망	-1539
in	-1540
량을	-1541
▁북미	-1542
근혜	-1543
▁비용	-1544
▁바람	-1545
▁인도	-1546
▁온라인	-1547
규모	-1548
▁통한	-1549
이오	-1550
연합	-1551
▁단체	-1552
▁능	-1553
▁존재	-1554
▁가입	-1555
▁표현	-1556
서도	-1557
▁영국	-1558
▁캠	-1559
▁마지	-1560
르게	-1561
▁이사	-1562
▁부족	-1563
▁바른	-1564
▁조금	-1565
▁장애	-1566
▁위반	-1567
구를	-1568
▁장기	-1569
▁팀	-1570
om	-1571
보는	-1572
었던	-1573
▁겪	-1574
▁자유한국당	-1575
라이	-1576
서비스	-1577
위가	-1578
관이	-1579
학생	-1580
▁언급	-1581
▁교수는	-1582
▁박근혜	-1583
▁각종	-1584
계획	-1585
▁중이다	-1586
▁중요한	-1587
he	-1588
▁흔	-1589
▁납	-1590
▁울산	-1591
되면서	-1592
▁알고	-1593
▁국회의	-1594
지지	-1595
▁페	-1596
▁면서	-1597
▁치료	-1598
▁희망	-1599
▁그런데	-1600
▁나가	-1601
노동	-1602
▁수입	-1603
▁지도	-1604
▁같이	-1605
▁대법	-1606
▁아시아	-1607
부의	-1608
▁연결	-1609
▁대출	-1610
쇼핑	-1611
▁통신	-1612
청은	-1613
▁받을	-1614
년에	-1615
▁자기	-1616
▁회사	-1617
▁전남	-1618
▁깊	-1619
▁점을	-1620
▁중단	-1621
중앙	-1622
▁제한	-1623
부에	-1624
리지	-1625
들에	-1626
인트	-1627
▁정신	-1628
▁어린이	-1629
▁70	-1630
▁북한이	-1631
▁마지막	-1632
▁소득	-1633
▁관한	-1634
하기도	-1635
▁내놓	-1636
했으며	-1637
▁으로	-1638
더라도	-1639
항공	-1640
정상	-1641
스타	-1642
평가	-1643
▁보내	-1644
하겠다	-1645
▁선고	-1646
▁여행	-1647
▁불가	-1648
▁과학	-1649
▁입장	-1650
▁대북	-1651
드를	-1652
▁없다고	-1653
움이	-1654
▁달러	-1655
▁우리는	-1656
건을	-1657
▁나온다	-1658
▁의견을	-1659
▁이러	-1660
▁서비스를	-1661
▁방안을	-1662
정한	-1663
무원	-1664
▁통일	-1665
▁회담	-1666
▁모습을	-1667
▁헤	-1668
▁군사	-1669
▁제외	-1670
텐츠	-1671
▁더불어민주당	-1672
와의	-1673
▁파악	-1674
▁프랑	-1675
▁만든	-1676
▁분양	-1677
▁보다	-1678
▁가지	-1679
▁못한	-1680
▁잇	-1681
▁빨	-1682
▁됐	-1683
▁감사	-1684
▁녹	-1685
▁비롯해	-1686
하였다	-1687
성에	-1688
▁창업	-1689
▁동시에	-1690
▁제안	-1691
▁유통	-1692
▁페이	-1693
명으로	-1694
대한	-1695
▁노조	-1696
세가	-1697
▁규제	-1698
▁처리	-1699
▁달리	-1700
개의	-1701
치가	-1702
▁대전	-1703
▁지방선거	-1704
▁지하	-1705
▁장관은	-1706
▁근무	-1707
▁정도로	-1708
▁꿈	-1709
▁진출	-1710
▁현실	-1711
▁최소	-1712
는지	-1713
구가	-1714
▁내용을	-1715
▁건물	-1716
이기	-1717
▁혜	-1718
▁비핵	-1719
ew	-1720
이자	-1721
▁촉구	-1722
회에	-1723
▁KB	-1724
하지만	-1725
주가	-1726
▁살아	-1727
대학	-1728
린다	-1729
▁충분	-1730
▁앞두고	-1731
▁협의	-1732
▁잔	-1733
롭게	-1734
▁것이라는	-1735
대책	-1736
▁곧	-1737
▁우리나라	-1738
상의	-1739
▁빈	-1740
▁국토	-1741
▁선언	-1742
▁대한민국	-1743
▁서로	-1744
▁전날	-1745
▁대선	-1746
▁맛	-1747
▁열고	-1748
▁싸	-1749
▁담당	-1750
만원을	-1751
병원	-1752
▁전통	-1753
▁그대로	-1754
▁사실을	-1755
▁이달	-1756
▁무역	-1757
▁꼽	-1758
▁찬	-1759
자에게	-1760
▁사업을	-1761
▁체결	-1762
▁작품	-1763
▁않다	-1764
▁받는	-1765
씨의	-1766
건설	-1767
스터	-1768
▁이루	-1769
▁이른	-1770
견을	-1771
▁듣	-1772
▁씨는	-1773
▁엔	-1774
관을	-1775
▁제도	-1776
▁홍보	-1777
▁경북	-1778
▁제조	-1779
수의	-1780
▁퍼	-1781
율이	-1782
▁강남	-1783
▁스스로	-1784
었고	-1785
▁이들	-1786
나는	-1787
▁여론	-1788
▁KT	-1789
스럽	-1790
기의	-1791
상에	-1792
▁벗	-1793
▁인해	-1794
▁확정	-1795
▁있는데	-1796
량이	-1797
▁여전히	-1798
▁제재	-1799
▁그가	-1800
▁단계	-1801
▁조정	-1802
포츠	-1803
▁점검	-1804
단이	-1805
스코	-1806
▁게임	-1807
▁뇌	-1808
되었다	-1809
▁좌	-1810
차례	-1811
명은	-1812
▁음악	-1813
▁마을	-1814
▁믿	-1815
촬영	-1816
당의	-1817
문에	-1818
발전	-1819
생활	-1820
바일	-1821
리의	-1822
▁계약	-1823
▁강력	-1824
▁엘	-1825
▁약속	-1826
▁김정은	-1827
이라며	-1828
ews	-1829
▁등록	-1830
▁루	-1831
▁거의	-1832
▁한미	-1833
▁전자	-1834
기간	-1835
성은	-1836
▁결과를	-1837
▁전쟁	-1838
방송	-1839
▁바라	-1840
▁통과	-1841
▁프리	-1842
식이	-1843
▁시험	-1844
▁그래서	-1845
겠습니다	-1846
▁전망이다	-1847
등학교	-1848
▁차례	-1849
년을	-1850
소득	-1851
▁푸	-1852
▁아울	-1853
년까지	-1854
▁이러한	-1855
▁젊	-1856
▁묻	-1857
▁가진	-1858
▁작업	-1859
지방	-1860
▁하면	-1861
▁198	-1862
▁보였다	-1863
세대	-1864
오는	-1865
▁측은	-1866
▁옮	-1867
▁불과	-1868
▁등은	-1869
▁최저임금	-1870
▁가능한	-1871
▁홈페이	-1872
다면	-1873
▁소방	-1874
▁나왔다	-1875
▁a	-1876
▁수상	-1877
▁되어	-1878
▁것이라며	-1879
하겠다는	-1880
▁예술	-1881
스러	-1882
▁부정	-1883
▁그러면서	-1884
▁취업	-1885
점이	-1886
과학	-1887
▁이하	-1888
▁같다	-1889
▁수석	-1890
으로는	-1891
▁비해	-1892
▁공유	-1893
분을	-1894
정에	-1895
▁연속	-1896
▁정확	-1897
▁이벤	-1898
▁있기	-1899
▁방침이다	-1900
이지만	-1901
▁도로	-1902
▁싱	-1903
▁회복	-1904
▁s	-1905
▁2013	-1906
부와	-1907
▁모바일	-1908
▁티	-1909
▁아울러	-1910
고를	-1911
주를	-1912
▁이끌	-1913
활동	-1914
업계	-1915
▁망	-1916
▁헌법	-1917
▁정의	-1918
▁예방	-1919
▁정권	-1920
▁오른	-1921
▁예비	-1922
▁어려운	-1923
했을	-1924
▁빌	-1925
▁국립	-1926
▁호텔	-1927
▁시작했다	-1928
▁고위	-1929
별로	-1930
▁형태	-1931
▁일을	-1932
▁비슷	-1933
▁잘못	-1934
▁검찰은	-1935
▁가지고	-1936
▁업종	-1937
▁청소년	-1938
협력	-1939
▁못했다	-1940
▁출마	-1941
▁스마트폰	-1942
▁작은	-1943
지의	-1944
▁인공	-1945
▁뉴스	-1946
▁이유로	-1947
▁좋아	-1948
▁운동	-1949
▁분명	-1950
▁번째	-1951
▁줄어	-1952
▁사람들이	-1953
▁못하고	-1954
자에	-1955
▁지켜	-1956
회사	-1957
BC	-1958
립니다	-1959
학과	-1960
안이	-1961
▁우리가	-1962
▁수행	-1963
▁연합뉴스	-1964
규직	-1965
▁80	-1966
히려	-1967
▁둘러	-1968
▁창출	-1969
▁배우	-1970
▁개혁	-1971
▁전용	-1972
교통	-1973
▁가능하다	-1974
▁부회	-1975
▁시절	-1976
▁맥	-1977
인가	-1978
▁토론	-1979
er	-1980
격을	-1981
▁여기	-1982
10	-1983
▁이야기	-1984
▁반응	-1985
▁이상의	-1986
만큼	-1987
주시	-1988
공항	-1989
▁가상	-1990
▁나선	-1991
▁바탕	-1992
▁바란	-1993
▁수밖에	-1994
인으로	-1995
▁투표	-1996
리로	-1997
▁아버	-1998
지면서	-1999
관에서	-2000
▁인권	-2001
구의	-2002
내는	-2003
트남	-2004
▁2012	-2005
▁유엔	-2006
▁에너지	-2007
▁대체	-2008
or	-2009
물이	-2010
▁염	-2011
▁f	-2012
▁고민	-2013
랫폼	-2014
▁없다는	-2015
▁땅	-2016
화가	-2017
보다는	-2018
▁기초	-2019
▁졸	-2020
▁독립	-2021
▁복지	-2022
▁혜택	-2023
인과	-2024
▁미사일	-2025
▁이번에	-2026
▁전북	-2027
상은	-2028
▁콘텐츠	-2029
▁종목	-2030
가의	-2031
▁com	-2032
▁자신이	-2033
▁냉	-2034
▁사태	-2035
▁넣	-2036
▁H	-2037
▁읽	-2038
▁행복	-2039
▁안보	-2040
▁받았	-2041
▁오히려	-2042
▁유명	-2043
▁신뢰	-2044
심을	-2045
▁해도	-2046
세계	-2047
▁솔	-2048
▁대통령과	-2049
▁잃	-2050
▁데이터	-2051
▁비롯한	-2052
▁정말	-2053
▁주도	-2054
기와	-2055
시켜	-2056
▁억	-2057
▁셈	-2058
▁회장	-2059
구는	-2060
려고	-2061
으로써	-2062
▁개헌	-2063
▁범죄	-2064
▁할인	-2065
실에서	-2066
▁지금까지	-2067
▁끊	-2068
▁낮은	-2069
▁되고	-2070
▁벌어	-2071
▁확산	-2072
▁마이	-2073
겼다	-2074
▁힘을	-2075
▁슬	-2076
구조	-2077
▁올림픽	-2078
▁활성화	-2079
▁부모	-2080
감이	-2081
▁후보는	-2082
안에	-2083
▁소통	-2084
▁그룹	-2085
▁추천	-2086
으니	-2087
▁필요가	-2088
▁사실상	-2089
▁기자회	-2090
▁상황에서	-2091
▁화재	-2092
▁열어	-2093
▁세종	-2094
▁의원이	-2095
▁TV	-2096
▁아래	-2097
▁라이	-2098
▁자율	-2099
▁베트남	-2100
▁당선	-2101
관광	-2102
법을	-2103
▁맞아	-2104
▁놓고	-2105
▁미세	-2106
▁35	-2107
▁2000	-2108
율을	-2109
▁갈등	-2110
▁판결	-2111
술을	-2112
봤다	-2113
▁어디	-2114
▁이명	-2115
▁이라는	-2116
▁비중	-2117
▁이란	-2118
원과	-2119
▁왔다	-2120
▁U	-2121
▁택	-2122
▁관심을	-2123
▁공모	-2124
▁탑	-2125
▁이재	-2126
▁혐의를	-2127
▁투입	-2128
▁딸	-2129
▁충남	-2130
▁정당	-2131
▁전혀	-2132
▁인수	-2133
▁색	-2134
▁추정	-2135
▁찍	-2136
▁빼	-2137
▁임대	-2138
▁케이	-2139
진을	-2140
▁젊은	-2141
스와	-2142
▁측면	-2143
▁익	-2144
벤처	-2145
▁처음으로	-2146
▁이것	-2147
▁전에	-2148
▁AI	-2149
▁순간	-2150
▁부문	-2151
▁규모의	-2152
▁주식	-2153
▁특수	-2154
▁작성	-2155
므로	-2156
▁지시	-2157
▁라며	-2158
▁회장은	-2159
▁증권	-2160
▁500	-2161
▁기억	-2162
가고	-2163
단의	-2164
▁재정	-2165
정상회담	-2166
▁보장	-2167
▁주가	-2168
▁이곳	-2169
▁열리는	-2170
조정	-2171
▁늘어	-2172
점으로	-2173
▁둔	-2174
▁인터뷰	-2175
일을	-2176
▁특정	-2177
▁불구	-2178
증을	-2179
▁자금	-2180
▁비핵화	-2181
려는	-2182
단계	-2183
▁기소	-2184
▁법률	-2185
케팅	-2186
▁자료	-2187
협의	-2188
하는데	-2189
▁조치	-2190
지와	-2191
▁안에	-2192
화된	-2193
▁세월	-2194
번째	-2195
▁회원	-2196
▁김영	-2197
▁아침	-2198
사고	-2199
제는	-2200
▁합니다	-2201
▁접근	-2202
▁삼성전자	-2203
▁앉	-2204
▁매년	-2205
▁쿠	-2206
▁여름	-2207
명에	-2208
웠다	-2209
▁발표했다	-2210
▁해석	-2211
무리	-2212
▁겸	-2213
▁1000	-2214
보면	-2215
▁수가	-2216
▁사라	-2217
▁충북	-2218
▁흥	-2219
▁많다	-2220
▁섬	-2221
▁성폭	-2222
▁R	-2223
▁상대로	-2224
▁기준으로	-2225
▁O	-2226
시스템	-2227
▁통화	-2228
위로	-2229
▁것에	-2230
전문	-2231
▁시간이	-2232
리와	-2233
펀드	-2234
▁이같이	-2235
▁프로젝	-2236
▁기여	-2237
▁옥	-2238
▁것과	-2239
▁흘	-2240
▁쉽게	-2241
▁바탕으로	-2242
▁외국인	-2243
▁알아	-2244
였던	-2245
▁늦	-2246
▁플랫폼	-2247
대회	-2248
▁수는	-2249
워크	-2250
▁편의	-2251
으면서	-2252
년대	-2253
▁상장	-2254
▁심각	-2255
▁칼	-2256
▁인한	-2257
▁슈	-2258
▁실제로	-2259
▁의무	-2260
▁소재	-2261
▁덕	-2262
▁선발	-2263
국이	-2264
▁의해	-2265
으로부터	-2266
프라	-2267
▁정보를	-2268
▁차별	-2269
▁취임	-2270
▁소송	-2271
▁자산	-2272
협회	-2273
▁밝혀	-2274
▁말이	-2275
▁활동을	-2276
▁사람은	-2277
역을	-2278
내고	-2279
받은	-2280
▁부과	-2281
▁변경	-2282
▁언제	-2283
▁훈련	-2284
on	-2285
▁지원을	-2286
▁때는	-2287
▁유치	-2288
▁조사를	-2289
▁남아	-2290
▁위협	-2291
위의	-2292
점에서	-2293
▁관심이	-2294
▁주는	-2295
▁자세	-2296
리카	-2297
수록	-2298
었다고	-2299
▁일정	-2300
▁필요하다	-2301
▁프랑스	-2302
되며	-2303
▁예상된다	-2304
▁주거	-2305
▁손을	-2306
▁가치	-2307
▁쏟	-2308
프트	-2309
군은	-2310
▁살펴	-2311
▁대표가	-2312
전에	-2313
▁광고	-2314
▁이익	-2315
▁발생한	-2316
▁보이고	-2317
▁여야	-2318
리기	-2319
씨를	-2320
액은	-2321
▁보도했다	-2322
국은	-2323
지털	-2324
▁원칙	-2325
▁상황을	-2326
▁V	-2327
일에	-2328
▁페이스	-2329
▁낸	-2330
▁긍	-2331
▁혹	-2332
공사	-2333
위원장	-2334
시가	-2335
▁거부	-2336
대학교	-2337
▁인식	-2338
연구소	-2339
▁300	-2340
▁밝히	-2341
▁달라	-2342
▁넓	-2343
▁근거	-2344
▁한번	-2345
▁소비자	-2346
디오	-2347
라면	-2348
▁친구	-2349
▁행동	-2350
체를	-2351
▁출발	-2352
▁배치	-2353
▁빛	-2354
▁이명박	-2355
▁반발	-2356
분이	-2357
▁옆	-2358
▁단순	-2359
▁베이	-2360
▁끼	-2361
▁당신	-2362
▁대중	-2363
▁걱	-2364
우는	-2365
▁나와	-2366
▁전반	-2367
카오	-2368
▁특검	-2369
▁히	-2370
▁건축	-2371
▁나섰다	-2372
▁앞에서	-2373
카드	-2374
▁집행	-2375
▁밖	-2376
▁해소	-2377
▁여의	-2378
▁음식	-2379
자금	-2380
어야	-2381
텔레	-2382
▁금지	-2383
지에서	-2384
▁마무리	-2385
주고	-2386
만을	-2387
▁밝힌	-2388
▁중국의	-2389
가족	-2390
드시	-2391
▁돈을	-2392
▁연계	-2393
▁사상	-2394
▁미세먼	-2395
▁시간을	-2396
니스	-2397
▁얘기	-2398
어를	-2399
▁사과	-2400
▁발굴	-2401
▁끌어	-2402
▁출범	-2403
▁일으	-2404
▁현대차	-2405
▁가져	-2406
▁남성	-2407
▁긍정	-2408
▁여러분의	-2409
▁전면	-2410
▁혈	-2411
▁202	-2412
▁압박	-2413
▁궁	-2414
▁집계	-2415
▁보건	-2416
도에	-2417
군의	-2418
▁5%	-2419
▁문제는	-2420
▁대기업	-2421
이드	-2422
적이고	-2423
됩니다	-2424
▁위원장은	-2425
억원으로	-2426
문이	-2427
지사	-2428
▁디자인	-2429
▁그림	-2430
▁쌓	-2431
▁불안	-2432
▁도움이	-2433
했으나	-2434
▁가정	-2435
▁한국의	-2436
▁인기	-2437
▁외부	-2438
마을	-2439
▁처벌	-2440
▁없을	-2441
만이	-2442
▁휘	-2443
▁개편	-2444
화폐	-2445
▁아름	-2446
▁무료	-2447
▁뒷	-2448
▁상담	-2449
▁기술을	-2450
▁되었다	-2451
▁힘들	-2452
항을	-2453
▁등장	-2454
▁멀	-2455
함을	-2456
▁포함한	-2457
조합	-2458
▁뉴욕	-2459
▁빅	-2460
▁대변인은	-2461
월까지	-2462
▁2010	-2463
TV	-2464
▁신용	-2465
▁삼성전	-2466
▁34	-2467
식품	-2468
▁증거	-2469
▁탐	-2470
▁여자	-2471
널드	-2472
로서	-2473
만의	-2474
▁출연	-2475
▁맺	-2476
▁시각	-2477
▁논란이	-2478
▁화장	-2479
▁검사	-2480
▁n	-2481
▁명의	-2482
프로	-2483
▁주로	-2484
▁페이스북	-2485
성도	-2486
학년	-2487
됐다고	-2488
형을	-2489
▁규정	-2490
수수	-2491
적을	-2492
어요	-2493
▁되면	-2494
기준	-2495
로를	-2496
성장	-2497
계올림픽	-2498
가구	-2499
▁당부	-2500
▁맞춰	-2501
제품	-2502
▁36	-2503
적이	-2504
▁2011	-2505
▁입주	-2506
▁뭐	-2507
경을	-2508
어서	-2509
▁관측	-2510
▁코스닥	-2511
▁보는	-2512
▁지속적으로	-2513
▁도착	-2514
▁반드시	-2515
▁긴급	-2516
▁촬영	-2517
▁대규모	-2518
▁정치적	-2519
▁해서	-2520
러스	-2521
▁디지털	-2522
▁공무원	-2523
▁던	-2524
▁비상	-2525
▁부인	-2526
▁제보를	-2527
당을	-2528
하려는	-2529
▁꾸준	-2530
대에서	-2531
▁최초로	-2532
▁주제로	-2533
트는	-2534
▁순매	-2535
▁계열	-2536
▁영업이익	-2537
▁방식으로	-2538
▁짓	-2539
▁연간	-2540
▁협상	-2541
▁넘는	-2542
▁시즌	-2543
▁강한	-2544
▁마케팅	-2545
지능	-2546
▁느끼	-2547
▁자녀	-2548
▁쉬	-2549
▁징역	-2550
▁작년	-2551
▁가는	-2552
▁전해졌다	-2553
▁얼마나	-2554
▁직후	-2555
▁지키	-2556
▁비서	-2557
▁걸쳐	-2558
플레이	-2559
경영	-2560
니아	-2561
▁스포츠	-2562
률이	-2563
▁뜨	-2564
해를	-2565
자치	-2566
▁액	-2567
▁전화	-2568
산을	-2569
감독	-2570
▁왔	-2571
▁봐	-2572
▁카카오	-2573
시키는	-2574
▁위해서는	-2575
▁아동	-2576
차가	-2577
안은	-2578
▁임금	-2579
회의에서	-2580
▁만드는	-2581
▁결혼	-2582
▁관광객	-2583
▁틀	-2584
▁발표한	-2585
▁겨울	-2586
▁시도	-2587
▁꼭	-2588
명과	-2589
▁해양	-2590
했는데	-2591
▁모양	-2592
▁한겨	-2593
▁보이	-2594
소가	-2595
▁반도	-2596
▁완화	-2597
▁했다고	-2598
▁사법	-2599
▁W	-2600
▁영상	-2601
했다며	-2602
시의	-2603
▁도널드	-2604
▁다가	-2605
▁특징	-2606
▁아마	-2607
재단	-2608
▁설계	-2609
에게는	-2610
레스	-2611
▁지진	-2612
리한	-2613
▁단지	-2614
▁네이	-2615
▁아주	-2616
자기	-2617
▁꽃	-2618
▁애플	-2619
▁셈이다	-2620
▁향해	-2621
▁프리미	-2622
▁니	-2623
▁하며	-2624
▁임시	-2625
▁등에서	-2626
▁모집	-2627
개혁	-2628
▁책임을	-2629
▁임명	-2630
지구	-2631
예술	-2632
▁휴대	-2633
▁피해를	-2634
었습니다	-2635
▁기다립니다	-2636
▁나머	-2637
▁인공지능	-2638
▁철저	-2639
▁90	-2640
장관	-2641
트워크	-2642
▁오래	-2643
▁욕	-2644
▁기업의	-2645
▁빚	-2646
자원	-2647
▁따라서	-2648
▁적극적으로	-2649
하우	-2650
▁타고	-2651
500	-2652
▁한겨레	-2653
과는	-2654
▁법무	-2655
▁유일	-2656
보호	-2657
▁제품을	-2658
▁겁	-2659
▁운전	-2660
▁수도권	-2661
위원회는	-2662
준다	-2663
▁2008	-2664
▁댓	-2665
론을	-2666
▁식품	-2667
▁쓴	-2668
질을	-2669
▁이용해	-2670
▁불러	-2671
▁점에서	-2672
▁위해서	-2673
건축	-2674
▁w	-2675
선이	-2676
으로서	-2677
없는	-2678
▁보이는	-2679
더니	-2680
아가	-2681
면서도	-2682
▁뽑	-2683
어도	-2684
▁국회에서	-2685
▁정기	-2686
▁효율	-2687
▁적이	-2688
이션	-2689
▁속에서	-2690
▁어머니	-2691
▁뛰어	-2692
▁국민의당	-2693
하였	-2694
공원	-2695
켰다	-2696
▁조합	-2697
▁하반기	-2698
▁세월호	-2699
제도	-2700
▁대해서도	-2701
▁흑	-2702
조차	-2703
▁실패	-2704
▁여의도	-2705
▁펼쳐	-2706
▁앞으로도	-2707
무를	-2708
▁불편	-2709
지법	-2710
▁실현	-2711
▁뜻을	-2712
▁아프	-2713
▁보니	-2714
▁있었던	-2715
▁들어가	-2716
▁갤	-2717
▁첨	-2718
▁실질	-2719
▁술	-2720
▁수용	-2721
▁속에	-2722
▁말씀	-2723
▁쏟아	-2724
제의	-2725
an	-2726
▁우려가	-2727
▁되지	-2728
▁했지만	-2729
자동차	-2730
▁자본	-2731
▁생각한다	-2732
직원	-2733
▁형사	-2734
▁32	-2735
▁비난	-2736
▁모르	-2737
▁이야기를	-2738
▁댓글	-2739
소에	-2740
▁공사	-2741
이에	-2742
▁균	-2743
표를	-2744
▁197	-2745
▁여부를	-2746
▁졸업	-2747
체육	-2748
▁여기에	-2749
▁주고	-2750
▁인물	-2751
년이	-2752
▁흐름	-2753
트리	-2754
▁꺼	-2755
▁컴	-2756
▁이행	-2757
▁올랐다	-2758
비가	-2759
자체	-2760
화에	-2761
화점	-2762
▁몸을	-2763
일에는	-2764
▁괴	-2765
연금	-2766
▁신설	-2767
▁일단	-2768
었지만	-2769
▁옷	-2770
▁노래	-2771
▁자동	-2772
▁매수	-2773
▁늘어나	-2774
▁헬	-2775
길을	-2776
▁메시	-2777
해도	-2778
▁카드	-2779
어진	-2780
▁레이	-2781
면을	-2782
▁청구	-2783
▁지배	-2784
▁정책을	-2785
▁것처럼	-2786
▁33	-2787
리며	-2788
▁동일	-2789
▁달성	-2790
▁사는	-2791
다운	-2792
▁앱	-2793
간의	-2794
상공	-2795
수사	-2796
일이	-2797
▁사실이	-2798
▁아니냐	-2799
▁나갈	-2800
▁기회를	-2801
부모	-2802
▁하다	-2803
율은	-2804
혁명	-2805
기고	-2806
▁마찬	-2807
일은	-2808
시킨	-2809
▁조건	-2810
스러운	-2811
▁가능성을	-2812
▁동물	-2813
▁사드	-2814
▁초청	-2815
▁반도체	-2816
포르	-2817
40	-2818
▁많아	-2819
월에	-2820
▁류	-2821
국제	-2822
▁국정원	-2823
▁싱가	-2824
보가	-2825
미래	-2826
▁절반	-2827
진흥	-2828
▁들고	-2829
▁미국이	-2830
▁가슴	-2831
받고	-2832
▁눈에	-2833
인들이	-2834
▁없고	-2835
▁접수	-2836
▁자리를	-2837
▁등도	-2838
▁소유	-2839
시험	-2840
▁새로	-2841
▁제공한다	-2842
투자증권	-2843
계가	-2844
▁연장	-2845
▁45	-2846
이란	-2847
제에	-2848
우고	-2849
▁마찬가지	-2850
▁탓	-2851
▁선물	-2852
▁옛	-2853
re	-2854
▁3%	-2855
▁하기	-2856
▁프로그램을	-2857
▁거듭	-2858
의원	-2859
▁통상	-2860
▁않으면	-2861
▁완전히	-2862
▁제가	-2863
신을	-2864
에서의	-2865
▁권한	-2866
▁안내	-2867
▁만족	-2868
▁사장	-2869
▁이탈	-2870
▁이름을	-2871
▁관련한	-2872
▁뿌	-2873
▁명예	-2874
만에	-2875
단지	-2876
분께	-2877
▁고통	-2878
▁다르	-2879
▁1%	-2880
▁구체적인	-2881
▁경우가	-2882
▁빠져	-2883
▁무슨	-2884
조를	-2885
▁상대적으로	-2886
▁허용	-2887
대출	-2888
▁의사	-2889
생을	-2890
시를	-2891
자들을	-2892
▁선임	-2893
력과	-2894
▁것입니다	-2895
문은	-2896
트로	-2897
▁상반기	-2898
▁담은	-2899
60	-2900
▁비슷한	-2901
▁프리미엄	-2902
▁한국당	-2903
리스트	-2904
▁취재	-2905
전이	-2906
▁등과	-2907
호를	-2908
▁있지	-2909
▁바꾸	-2910
▁실무	-2911
▁잇따	-2912
▁못하는	-2913
파크	-2914
▁완료	-2915
▁바뀌	-2916
▁다음달	-2917
▁나누	-2918
▁성과를	-2919
▁이라	-2920
▁38	-2921
19	-2922
률을	-2923
▁하늘	-2924
▁우리의	-2925
▁경찰에	-2926
▁시장은	-2927
▁사이에	-2928
▁동의	-2929
▁비판했다	-2930
▁그때	-2931
▁바다	-2932
▁돕	-2933
군이	-2934
류를	-2935
▁연구원은	-2936
▁하이	-2937
겠지만	-2938
지검	-2939
▁지자체	-2940
▁든	-2941
▁양국	-2942
▁포함해	-2943
당한	-2944
▁지역의	-2945
들로	-2946
▁포항	-2947
▁매각	-2948
▁봄	-2949
기구	-2950
▁다소	-2951
▁마치	-2952
▁싱가포르	-2953
▁의심	-2954
▁충분히	-2955
▁죄	-2956
▁2007	-2957
▁저녁	-2958
▁문을	-2959
▁꼬	-2960
▁상황이	-2961
▁발사	-2962
중에	-2963
▁앞에	-2964
해왔다	-2965
리핑	-2966
▁강력한	-2967
▁완성	-2968
▁간담	-2969
▁콜	-2970
속도로	-2971
▁평양	-2972
▁생태	-2973
▁벽	-2974
▁작용	-2975
▁2009	-2976
공단	-2977
아야	-2978
▁대법원	-2979
▁병원	-2980
소는	-2981
▁고발	-2982
▁맞는	-2983
▁갑자기	-2984
▁후보가	-2985
▁기사	-2986
▁느낌	-2987
▁들여	-2988
▁바이오	-2989
15	-2990
았던	-2991
적이다	-2992
▁원하는	-2993
▁h	-2994
▁걷	-2995
▁the	-2996
▁일어나	-2997
▁객	-2998
정당	-2999
받는	-3000
▁추가로	-3001
▁않도록	-3002
만으로	-3003
▁김동	-3004
▁명이	-3005
▁증가했다	-3006
결과	-3007
▁참석한	-3008
서에	-3009
▁전년	-3010
▁신한	-3011
상으로	-3012
의견	-3013
하이	-3014
▁시작으로	-3015
페인	-3016
과정	-3017
무역	-3018
▁수원	-3019
▁훨	-3020
▁선생	-3021
▁주문	-3022
▁시청	-3023
▁이른바	-3024
▁사건을	-3025
량은	-3026
▁제공하는	-3027
▁2%	-3028
행정	-3029
▁원내대표는	-3030
▁굳	-3031
▁장애인	-3032
들어	-3033
▁상임	-3034
목을	-3035
▁금리	-3036
▁수립	-3037
▁의혹을	-3038
회의를	-3039
▁서울중앙	-3040
▁진입	-3041
▁수사를	-3042
▁관련된	-3043
션을	-3044
액을	-3045
▁쇼핑	-3046
▁계획을	-3047
자산	-3048
▁이내	-3049
▁새벽	-3050
▁관람	-3051
▁즐길	-3052
▁확인할	-3053
라마	-3054
▁자주	-3055
▁엄마	-3056
점에	-3057
▁대기	-3058
▁판문	-3059
▁경고	-3060
▁훨씬	-3061
▁기상	-3062
▁분석했다	-3063
억원의	-3064
▁형성	-3065
▁하는데	-3066
누리	-3067
여명이	-3068
▁공감	-3069
▁2020	-3070
▁CJ	-3071
5000	-3072
▁부여	-3073
▁당연	-3074
시민	-3075
▁거주	-3076
에만	-3077
▁걱정	-3078
전략	-3079
산물	-3080
ST	-3081
▁나머지	-3082
스럽게	-3083
포인트	-3084
▁친환경	-3085
▁과정을	-3086
이사	-3087
▁만난	-3088
▁행사를	-3089
▁포기	-3090
▁국회의원	-3091
▁자리에서	-3092
수석	-3093
▁시는	-3094
▁기자회견을	-3095
▁공직	-3096
▁진행한다	-3097
▁시장의	-3098
해온	-3099
▁거론	-3100
▁춘	-3101
▁흡	-3102
▁블록	-3103
▁미국과	-3104
▁오픈	-3105
▁확실	-3106
▁맞춤	-3107
▁들었다	-3108
▁바이	-3109
▁직장	-3110
12	-3111
▁진단	-3112
▁신속	-3113
한다면	-3114
▁절대	-3115
▁하면서	-3116
진이	-3117
▁남자	-3118
상품	-3119
▁받지	-3120
▁폭염	-3121
▁기능을	-3122
▁보통	-3123
▁IT	-3124
▁주인	-3125
▁자격	-3126
▁쓸	-3127
▁출석	-3128
▁농업	-3129
연구원	-3130
메라	-3131
나무	-3132
▁그를	-3133
▁늘었다	-3134
사무	-3135
스토	-3136
▁불구하고	-3137
▁주차	-3138
▁마음을	-3139
▁계기로	-3140
▁작가	-3141
▁전투	-3142
녀석	-3143
▁태양	-3144
▁피해자	-3145
▁늘어난	-3146
▁방문해	-3147
스에	-3148
▁높다	-3149
▁신경	-3150
▁고개를	-3151
수로	-3152
▁커피	-3153
▁초기	-3154
▁좋다	-3155
▁J	-3156
▁기울	-3157
▁효과를	-3158
▁눈을	-3159
▁블랙	-3160
▁감안	-3161
▁도전	-3162
▁월드	-3163
▁있어서	-3164
식에	-3165
▁이벤트	-3166
▁개입	-3167
다른	-3168
되기	-3169
▁인재	-3170
▁네이버	-3171
▁받아들	-3172
▁답변	-3173
▁써	-3174
▁나오고	-3175
▁열린다	-3176
▁구간	-3177
처를	-3178
조선	-3179
된다고	-3180
렀다	-3181
금은	-3182
금이	-3183
▁취소	-3184
코리아	-3185
▁37	-3186
▁4%	-3187
▁챙	-3188
중한	-3189
공간	-3190
▁영어	-3191
▁수준으로	-3192
▁수수	-3193
▁저는	-3194
▁곳곳	-3195
부문	-3196
▁했습니다	-3197
▁이들이	-3198
▁북핵	-3199
▁폐지	-3200
장애	-3201
대와	-3202
서관	-3203
▁원을	-3204
▁대회	-3205
건이	-3206
▁전력	-3207
▁인증	-3208
▁위치한	-3209
▁재산	-3210
▁실시간	-3211
▁강제	-3212
도와	-3213
▁노력을	-3214
▁차원에서	-3215
거운	-3216
▁의결	-3217
▁꾸준히	-3218
▁셀	-3219
▁부총	-3220
▁내고	-3221
▁구입	-3222
▁조작	-3223
구역	-3224
약품	-3225
▁운영하는	-3226
▁프로젝트	-3227
▁자치	-3228
▁시작한	-3229
려면	-3230
▁심사	-3231
▁생각이	-3232
▁까	-3233
▁사퇴	-3234
▁창원	-3235
▁절차	-3236
▁검증	-3237
▁분류	-3238
▁코스피	-3239
▁상호	-3240
▁생각을	-3241
▁획	-3242
있다	-3243
▁현행	-3244
▁찾는	-3245
▁역대	-3246
점은	-3247
▁혜택을	-3248
▁지금은	-3249
▁새롭게	-3250
훼손	-3251
▁팬	-3252
▁했던	-3253
▁상징	-3254
리즈	-3255
▁빠르게	-3256
▁일자	-3257
▁내용이	-3258
▁나타나	-3259
▁매일	-3260
후보	-3261
체가	-3262
▁진보	-3263
▁떠나	-3264
체인	-3265
▁위안	-3266
▁매매	-3267
▁평소	-3268
▁벗어나	-3269
▁추세	-3270
▁사장은	-3271
▁배경	-3272
▁폴	-3273
▁케	-3274
▁이르	-3275
▁우승	-3276
▁자신을	-3277
▁장관이	-3278
▁밑	-3279
대상	-3280
년에는	-3281
▁평가를	-3282
▁가맹	-3283
▁관세	-3284
▁최선을	-3285
▁보인	-3286
함으로써	-3287
사인	-3288
범죄	-3289
▁동반	-3290
▁홀	-3291
▁나오는	-3292
실험	-3293
어가	-3294
력은	-3295
▁후원	-3296
▁당부했다	-3297
까지는	-3298
▁말한다	-3299
▁가까운	-3300
개국	-3301
▁진술	-3302
뿐만	-3303
주로	-3304
사업을	-3305
▁횡	-3306
▁바른미래	-3307
▁주말	-3308
▁글을	-3309
경기	-3310
▁정리	-3311
스티	-3312
▁수능	-3313
▁공공기관	-3314
▁불가능	-3315
법인	-3316
시킬	-3317
▁육성	-3318
▁연기	-3319
방을	-3320
▁진행된다	-3321
▁반복	-3322
▁효과가	-3323
▁이틀	-3324
른다	-3325
▁그리	-3326
▁호소	-3327
▁기부	-3328
▁노무	-3329
▁짧	-3330
해진	-3331
▁조치를	-3332
ar	-3333
▁동원	-3334
▁BO	-3335
▁개별	-3336
▁적절	-3337
어는	-3338
▁단일	-3339
시부터	-3340
▁미세먼지	-3341
비용	-3342
티브	-3343
ou	-3344
en	-3345
▁북측	-3346
분에	-3347
나가	-3348
선에	-3349
▁도움을	-3350
▁잠시	-3351
▁싶은	-3352
▁상태다	-3353
18	-3354
▁인프라	-3355
▁백악	-3356
▁에어	-3357
NS	-3358
▁주의	-3359
at	-3360
▁정비	-3361
센터에서	-3362
▁남편	-3363
종의	-3364
▁활용해	-3365
▁동아	-3366
치지	-3367
▁배출	-3368
지면	-3369
▁한다며	-3370
일로	-3371
▁높이	-3372
▁52	-3373
▁완전	-3374
▁실험	-3375
▁기온	-3376
▁주최	-3377
▁재건축	-3378
▁자료를	-3379
▁폐쇄	-3380
▁길을	-3381
▁고양	-3382
▁시대	-3383
▁굴	-3384
▁한나라	-3385
▁중간	-3386
▁News	-3387
▁예측	-3388
소에서	-3389
▁시장을	-3390
▁사람을	-3391
▁사람의	-3392
▁내다	-3393
▁구성된	-3394
▁밖에	-3395
▁시장에	-3396
▁흔들	-3397
▁김정	-3398
▁최고의	-3399
▁운용	-3400
액이	-3401
▁나를	-3402
리그	-3403
▁김성	-3404
▁보안	-3405
▁녀석	-3406
▁합동	-3407
구에	-3408
▁비정	-3409
활동을	-3410
공업	-3411
▁"	-3412
▁공약	-3413
평화	-3414
▁시가	-3415
안보	-3416
▁태풍	-3417
▁희생	-3418
▁공천	-3419
▁취약	-3420
계의	-3421
▁브라	-3422
팀은	-3423
권의	-3424
11	-3425
▁듣고	-3426
▁초과	-3427
운드	-3428
▁집단	-3429
▁위에	-3430
직을	-3431
성의	-3432
▁융	-3433
▁합리	-3434
▁주관	-3435
▁비행	-3436
▁묘	-3437
질이	-3438
▁제시한	-3439
▁겁니다	-3440
▁질문에	-3441
▁교사	-3442
▁재무	-3443
권이	-3444
한테	-3445
테크	-3446
향을	-3447
▁센	-3448
자들에게	-3449
▁광역	-3450
▁7%	-3451
▁기업이	-3452
받아	-3453
▁가까이	-3454
씨와	-3455
▁씨가	-3456
▁이슈	-3457
▁주력	-3458
▁학부모	-3459
▁교체	-3460
▁돌파	-3461
▁개막	-3462
▁파견	-3463
시티	-3464
▁의한	-3465
▁한화	-3466
▁이유는	-3467
▁마감	-3468
▁등이다	-3469
▁법정	-3470
웨이	-3471
▁목소리를	-3472
▁머물	-3473
텔레콤	-3474
▁강릉	-3475
▁KBS	-3476
▁소설	-3477
▁뮤	-3478
달라고	-3479
▁북한은	-3480
▁특허	-3481
▁복합	-3482
하고자	-3483
▁서울대	-3484
▁총리는	-3485
▁회장이	-3486
▁모아	-3487
▁이용할	-3488
구청	-3489
▁멈	-3490
▁실천	-3491
전쟁	-3492
▁최고위원	-3493
명한	-3494
히는	-3495
▁MBC	-3496
▁쌍	-3497
▁만약	-3498
▁달려	-3499
▁풀이	-3500
됐고	-3501
▁크다	-3502
▁나무	-3503
is	-3504
▁사람들은	-3505
이었던	-3506
▁빨리	-3507
▁법인	-3508
▁단독	-3509
가로	-3510
▁기아	-3511
비는	-3512
▁고려해	-3513
하라고	-3514
▁대폭	-3515
▁오랜	-3516
▁상무	-3517
▁삭	-3518
▁응답	-3519
▁연말	-3520
호텔	-3521
력의	-3522
공동	-3523
선언	-3524
▁목표로	-3525
국민	-3526
▁떨어진	-3527
▁재판부는	-3528
▁오르	-3529
▁스트	-3530
조사를	-3531
▁확장	-3532
▁빠른	-3533
▁시장에서	-3534
돼야	-3535
▁가상화폐	-3536
▁동해	-3537
▁가치를	-3538
▁입을	-3539
리오	-3540
상에서	-3541
▁시범	-3542
▁촛	-3543
▁시장이	-3544
동의	-3545
조원	-3546
▁인하	-3547
▁강원도	-3548
▁발행	-3549
80	-3550
▁곡	-3551
▁축소	-3552
퓨터	-3553
상황	-3554
▁내용의	-3555
▁미리	-3556
▁가동	-3557
데이터	-3558
▁내세	-3559
▁곤	-3560
▁news	-3561
▁b	-3562
기획	-3563
▁브리핑	-3564
▁안철	-3565
▁컬	-3566
▁쉽지	-3567
▁나타냈다	-3568
▁때까지	-3569
▁변동	-3570
▁노인	-3571
▁선박	-3572
▁곳이	-3573
▁소리	-3574
▁BOX	-3575
간다	-3576
▁권고	-3577
혔다	-3578
▁채택	-3579
▁그럼	-3580
▁39	-3581
▁잊	-3582
▁2006	-3583
▁나눠	-3584
▁상황이다	-3585
▁서초	-3586
분야	-3587
▁경찰이	-3588
▁갖춘	-3589
등급	-3590
▁당초	-3591
기사	-3592
량의	-3593
▁새누리	-3594
가에	-3595
▁교류	-3596
건의	-3597
▁많았다	-3598
▁올해는	-3599
▁도발	-3600
▁국방부	-3601
▁촛불	-3602
▁문제에	-3603
▁6%	-3604
▁지휘	-3605
▁학습	-3606
▁중에	-3607
선의	-3608
▁돌려	-3609
17	-3610
▁시스템을	-3611
▁금감	-3612
▁로봇	-3613
▁국내외	-3614
▁갖추	-3615
됐습니다	-3616
▁바란다	-3617
▁비가	-3618
령을	-3619
주기	-3620
▁지식	-3621
▁종교	-3622
▁사용할	-3623
위원회가	-3624
▁그것은	-3625
▁혼자	-3626
▁체계	-3627
▁주주	-3628
은행은	-3629
▁결의	-3630
▁끝에	-3631
▁베이징	-3632
▁지역에	-3633
▁8%	-3634
▁어제	-3635
▁의지를	-3636
▁메이	-3637
이면	-3638
▁습	-3639
▁10%	-3640
일간	-3641
▁지원하는	-3642
재생	-3643
▁추석	-3644
▁건립	-3645
▁파트	-3646
▁네트워크	-3647
노조	-3648
지기	-3649
▁증가한	-3650
권에	-3651
▁덜	-3652
비아	-3653
기지	-3654
▁에스	-3655
서가	-3656
▁일은	-3657
▁차단	-3658
▁정부와	-3659
▁폭발	-3660
▁재개	-3661
▁m	-3662
▁화학	-3663
식으로	-3664
▁센터	-3665
▁재미	-3666
▁IC	-3667
▁부처	-3668
▁원전	-3669
▁조기	-3670
특별	-3671
▁피부	-3672
▁미국은	-3673
▁인구	-3674
▁받는다	-3675
▁사항	-3676
▁답했다	-3677
화와	-3678
▁관계자	-3679
상과	-3680
▁누구나	-3681
▁재난	-3682
▁운행	-3683
버스	-3684
▁수준의	-3685
싱턴	-3686
▁열었다	-3687
▁참고	-3688
▁활용한	-3689
▁SNS	-3690
▁다니	-3691
▁물러	-3692
▁촉구했다	-3693
▁인력	-3694
법에	-3695
▁42	-3696
서울	-3697
계약	-3698
졌습니다	-3699
분간	-3700
판을	-3701
▁대책을	-3702
▁가로	-3703
▁숲	-3704
▁갤럭	-3705
▁이같은	-3706
▁쇼	-3707
웨어	-3708
개로	-3709
▁개방	-3710
▁모여	-3711
정의	-3712
트의	-3713
▁대표적인	-3714
▁민족	-3715
▁하나의	-3716
됐던	-3717
정으로	-3718
▁아르	-3719
받을	-3720
▁나올	-3721
▁9%	-3722
▁정확한	-3723
▁올려	-3724
▁이외	-3725
al	-3726
▁당장	-3727
▁자랑	-3728
았고	-3729
▁심리	-3730
▁끝나	-3731
▁미디어	-3732
▁느껴	-3733
▁최대한	-3734
단에	-3735
▁50%	-3736
▁대통령을	-3737
▁비정규직	-3738
▁가계	-3739
▁개발한	-3740
주에	-3741
▁가구	-3742
▁구글	-3743
바이	-3744
관의	-3745
▁폐기	-3746
년의	-3747
진은	-3748
이라도	-3749
제한	-3750
▁안팎	-3751
▁카페	-3752
요일	-3753
청이	-3754
시키고	-3755
▁앉아	-3756
지게	-3757
▁수치	-3758
▁종로	-3759
▁샤	-3760
실에	-3761
▁평가했다	-3762
▁요즘	-3763
가능	-3764
심의	-3765
▁어렵다	-3766
었을	-3767
▁150	-3768
스플레이	-3769
이던	-3770
미사일	-3771
소로	-3772
▁유사	-3773
▁65	-3774
ES	-3775
▁야당	-3776
▁똑	-3777
▁검찰이	-3778
▁정규직	-3779
▁수술	-3780
▁디자	-3781
▁환자	-3782
▁이들의	-3783
▁절차를	-3784
▁본다	-3785
운영	-3786
▁채권	-3787
▁드러났다	-3788
▁에이	-3789
▁연락	-3790
▁그냥	-3791
위원회를	-3792
▁일어	-3793
▁판문점	-3794
▁2005	-3795
연을	-3796
▁부사	-3797
▁밝혔습니다	-3798
▁공항	-3799
▁법원	-3800
운용	-3801
▁바닥	-3802
▁아내	-3803
게임	-3804
▁감염	-3805
▁검찰에	-3806
▁노무현	-3807
▁옮겨	-3808
▁대학생	-3809
▁탑재	-3810
▁선출	-3811
▁목적	-3812
▁나의	-3813
▁상품을	-3814
▁전망했다	-3815
▁갤럭시	-3816
▁가득	-3817
▁충돌	-3818
▁알려진	-3819
받았다	-3820
세로	-3821
률은	-3822
▁적발	-3823
▁공장	-3824
25	-3825
투표	-3826
▁노사	-3827
▁대화를	-3828
피스	-3829
▁상위	-3830
▁스타트	-3831
▁위로	-3832
라우	-3833
▁북한에	-3834
▁성남	-3835
▁제거	-3836
제와	-3837
▁0.	-3838
▁일본의	-3839
▁유도	-3840
▁o	-3841
▁인기를	-3842
마저	-3843
▁드라마	-3844
▁상생	-3845
▁심각한	-3846
종목	-3847
주행	-3848
▁경제적	-3849
▁어려움을	-3850
▁5000	-3851
▁안철수	-3852
▁타이	-3853
▁맞춤형	-3854
▁심의	-3855
하나	-3856
▁체포	-3857
▁적은	-3858
▁이탈리아	-3859
▁관계를	-3860
▁작업을	-3861
▁남은	-3862
▁소상공	-3863
▁아베	-3864
▁2019	-3865
쪽으로	-3866
▁현장에서	-3867
▁삶을	-3868
▁컴퓨터	-3869
▁트위	-3870
▁지구	-3871
▁테러	-3872
▁카메라	-3873
▁확인됐다	-3874
실이	-3875
▁이처럼	-3876
인들의	-3877
▁전주	-3878
la	-3879
▁이루어	-3880
▁핵실험	-3881
ed	-3882
▁이어질	-3883
▁이다	-3884
▁총리	-3885
▁버스	-3886
▁보조	-3887
▁20%	-3888
▁있다면	-3889
▁거리	-3890
만명	-3891
▁김경	-3892
▁맨	-3893
▁포스코	-3894
▁주재	-3895
▁중요하다	-3896
it	-3897
▁특별한	-3898
70	-3899
▁필요하다고	-3900
▁포인트	-3901
▁지적이	-3902
▁선도	-3903
▁결과가	-3904
▁무엇보다	-3905
▁묵	-3906
▁그들은	-3907
▁대로	-3908
▁연출	-3909
▁제일	-3910
란드	-3911
억달러	-3912
▁요금	-3913
▁삶의	-3914
14	-3915
▁검색	-3916
▁강하게	-3917
▁본격적인	-3918
▁k	-3919
▁일제	-3920
▁썼	-3921
▁밥	-3922
▁선호	-3923
▁패션	-3924
▁자체가	-3925
음이	-3926
보니	-3927
력에	-3928
▁교육을	-3929
▁나왔	-3930
▁표시	-3931
유의	-3932
▁미술	-3933
▁근본	-3934
각을	-3935
▁적극적인	-3936
▁악화	-3937
▁위원장	-3938
▁전문가들은	-3939
▁수십	-3940
▁상황에	-3941
▁가을	-3942
▁게시	-3943
▁기획재	-3944
▁만한	-3945
▁수준을	-3946
BS	-3947
▁뿐만	-3948
▁워싱턴	-3949
▁부담을	-3950
▁파트너	-3951
▁차이가	-3952
▁깊은	-3953
es	-3954
했기	-3955
▁웹	-3956
13	-3957
벤처기업	-3958
▁(	-3959
▁소환	-3960
▁봉사	-3961
▁국토교통	-3962
▁얼굴을	-3963
주민	-3964
▁리더	-3965
▁내리	-3966
▁짜	-3967
▁사진을	-3968
바이오	-3969
▁극복	-3970
▁의원의	-3971
수도	-3972
RI	-3973
▁철강	-3974
▁부품	-3975
▁단축	-3976
▁할머니	-3977
하라	-3978
▁43	-3979
▁보기	-3980
▁하나로	-3981
▁제외한	-3982
▁고교	-3983
학을	-3984
격이	-3985
▁노출	-3986
이어서	-3987
나다	-3988
위원장은	-3989
▁영역	-3990
ED	-3991
▁남북정상회담	-3992
16	-3993
▁변화를	-3994
▁자원	-3995
▁만들기	-3996
▁최우	-3997
▁무기	-3998
부장	-3999
시켰다	-4000
▁진행하고	-4001
▁결정을	-4002
▁내렸다	-4003
▁싶다	-4004
기기	-4005
▁개념	-4006
▁단속	-4007
▁엄청	-4008
▁연휴	-4009
▁가능성도	-4010
▁누가	-4011
▁냈다	-4012
만달러	-4013
▁피의	-4014
▁있는지	-4015
▁하게	-4016
세기	-4017
▁법적	-4018
종합	-4019
▁참석해	-4020
고는	-4021
▁집계됐다	-4022
▁분위기	-4023
질환	-4024
▁아름다운	-4025
▁움직임	-4026
▁직무	-4027
건으로	-4028
▁아니냐는	-4029
▁보이지	-4030
이라면	-4031
만한	-4032
▁단기	-4033
▁것이었다	-4034
▁대해서	-4035
▁위원장이	-4036
▁띄	-4037
▁낮아	-4038
▁생존	-4039
▁48	-4040
크로	-4041
이기도	-4042
▁구속영	-4043
▁배제	-4044
▁폭행	-4045
져야	-4046
▁보완	-4047
영업	-4048
▁학생들이	-4049
숨을	-4050
바로	-4051
▁짐	-4052
하면서도	-4053
▁초반	-4054
▁55	-4055
▁줄어들	-4056
▁출입	-4057
▁대우	-4058
▁중구	-4059
▁필수	-4060
재를	-4061
엑스	-4062
▁고령	-4063
▁펀드	-4064
TA	-4065
면에	-4066
▁대답	-4067
▁성추	-4068
▁명확	-4069
▁유리	-4070
▁지역에서	-4071
▁위기	-4072
▁직업	-4073
▁유해	-4074
▁규모가	-4075
▁비즈	-4076
▁활발	-4077
▁철도	-4078
▁이로	-4079
이의	-4080
모델	-4081
▁축구	-4082
▁중국이	-4083
▁결제	-4084
사들이	-4085
뮤니	-4086
▁바른정당	-4087
▁누리	-4088
▁설명이다	-4089
▁채널	-4090
▁부장	-4091
▁가격이	-4092
▁첨단	-4093
▁기반으로	-4094
OP	-4095
▁지분	-4096
키로	-4097
▁마친	-4098
▁현금	-4099
▁생명	-4100
▁업무를	-4101
▁분야에서	-4102
사령	-4103
▁비밀	-4104
관과	-4105
▁46	-4106
▁담긴	-4107
▁분명히	-4108
▁홍콩	-4109
▁분리	-4110
▁고급	-4111
▁안타	-4112
식은	-4113
▁선진	-4114
재판	-4115
지자	-4116
▁당국	-4117
▁혹은	-4118
개가	-4119
▁인터뷰에서	-4120
▁지상	-4121
▁환영	-4122
▁외무	-4123
만원의	-4124
루킹	-4125
신문	-4126
▁골프	-4127
놓고	-4128
▁트위터	-4129
▁진상	-4130
▁만들고	-4131
시스	-4132
▁당사	-4133
었는데	-4134
▁도쿄	-4135
▁피고	-4136
▁참여한	-4137
▁가르	-4138
▁박정	-4139
▁과학기술	-4140
▁30%	-4141
▁이스	-4142
▁시내	-4143
▁못해	-4144
▁일각	-4145
금리	-4146
▁계약을	-4147
▁품질	-4148
▁호남	-4149
릭터	-4150
월에는	-4151
같은	-4152
▁투자를	-4153
▁아이디어	-4154
위원장이	-4155
▁때마다	-4156
▁올렸다	-4157
▁신세계	-4158
▁유출	-4159
차는	-4160
▁합격	-4161
▁그녀는	-4162
해양	-4163
▁둘러싼	-4164
▁왼	-4165
▁주가가	-4166
식에서	-4167
▁가해	-4168
▁따뜻	-4169
▁교과	-4170
▁56	-4171
▁그린	-4172
▁기회	-4173
▁접촉	-4174
▁75	-4175
▁GS	-4176
▁점이	-4177
줬다	-4178
▁상당히	-4179
▁척	-4180
▁지하철	-4181
정치	-4182
▁참여하는	-4183
▁불리는	-4184
▁제주도	-4185
▁보낸	-4186
▁그들의	-4187
당에서	-4188
▁조사됐다	-4189
수수색	-4190
▁힐	-4191
▁전개	-4192
관에	-4193
▁잡아	-4194
▁굉	-4195
▁나설	-4196
▁유기	-4197
▁구현	-4198
▁보유한	-4199
▁압수수색	-4200
▁44	-4201
▁요구했다	-4202
▁드루킹	-4203
▁들이	-4204
구나	-4205
많은	-4206
만원으로	-4207
▁넘게	-4208
트가	-4209
▁기타	-4210
▁직전	-4211
한다며	-4212
▁공부	-4213
▁경험을	-4214
▁참석했다	-4215
전화	-4216
▁달하는	-4217
▁내에	-4218
▁있어야	-4219
▁뒤를	-4220
화학	-4221
▁통계	-4222
▁질환	-4223
▁낼	-4224
▁설정	-4225
▁성폭력	-4226
시와	-4227
▁특파	-4228
▁질문	-4229
24	-4230
▁범행	-4231
노총	-4232
▁저지	-4233
사항	-4234
▁초대	-4235
▁2004	-4236
▁원래	-4237
▁가량	-4238
뱅크	-4239
▁피해가	-4240
▁캐릭터	-4241
▁59	-4242
▁도와	-4243
이즈	-4244
설을	-4245
▁시기	-4246
▁부진	-4247
▁빅데이터	-4248
리어	-4249
▁내린	-4250
▁내용은	-4251
▁매장	-4252
▁400	-4253
▁사용하는	-4254
▁이래	-4255
안의	-4256
▁진행된	-4257
이로	-4258
망을	-4259
▁이중	-4260
▁있으면	-4261
▁이상이	-4262
▁붉	-4263
▁통보	-4264
▁방지	-4265
▁의미를	-4266
▁손해	-4267
▁입학	-4268
▁강경	-4269
▁협약	-4270
▁사업에	-4271
▁주석	-4272
▁세부	-4273
▁것이란	-4274
적으로는	-4275
▁급증	-4276
▁표준	-4277
선은	-4278
▁모색	-4279
▁그것을	-4280
▁49	-4281
라스	-4282
▁신임	-4283
▁쏠	-4284
▁3000	-4285
▁넘겨	-4286
▁성능	-4287
▁쳐	-4288
▁앞둔	-4289
▁후속	-4290
▁목표주가	-4291
▁연방	-4292
▁출판	-4293
▁듯한	-4294
기록	-4295
▁이끌어	-4296
▁축제	-4297
▁196	-4298
km	-4299
▁제약	-4300
부로	-4301
▁자세한	-4302
▁착수	-4303
▁행정부	-4304
▁외에	-4305
▁스타트업	-4306
▁의사를	-4307
▁수정	-4308
▁쓰는	-4309
처리	-4310
▁이웃	-4311
▁치열	-4312
▁생각해	-4313
님이	-4314
▁떠올	-4315
▁풍부	-4316
▁낳	-4317
문학	-4318
▁훼손	-4319
▁말고	-4320
니터	-4321
▁주한	-4322
▁수요가	-4323
▁e	-4324
▁장비	-4325
전에서	-4326
▁외에도	-4327
▁없다며	-4328
▁사유	-4329
▁불가피	-4330
▁변호사	-4331
화의	-4332
▁노동자	-4333
▁머리	-4334
청에	-4335
▁소프트	-4336
▁임직원	-4337
▁뚜	-4338
▁서해	-4339
▁대해선	-4340
▁흘러	-4341
▁수많은	-4342
▁탁	-4343
▁했고	-4344
였습니다	-4345
▁쟁	-4346
▁난민	-4347
▁용산	-4348
작용	-4349
▁실행	-4350
▁예약	-4351
점검	-4352
해주	-4353
▁투자의견	-4354
백화점	-4355
대행	-4356
▁모습이	-4357
세요	-4358
▁목소리가	-4359
준표	-4360
▁대한항공	-4361
▁결합	-4362
▁동남	-4363
▁계획이라고	-4364
▁찬성	-4365
베이	-4366
▁47	-4367
▁동료	-4368
▁간의	-4369
평양	-4370
▁도심	-4371
씨에게	-4372
▁화장품	-4373
▁즉시	-4374
평균	-4375
▁청약	-4376
▁섭	-4377
▁크리스	-4378
▁의미가	-4379
공개	-4380
▁좁	-4381
서의	-4382
▁걸어	-4383
▁놈	-4384
▁저항	-4385
▁향상	-4386
세포	-4387
▁시작된	-4388
▁회장의	-4389
▁무시	-4390
▁음성	-4391
▁현재까지	-4392
▁발의	-4393
▁안에서	-4394
책을	-4395
말로	-4396
▁못할	-4397
▁정체	-4398
▁허위	-4399
연대	-4400
▁규모로	-4401
▁조용	-4402
▁면접	-4403
화하는	-4404
위에서	-4405
▁외교부	-4406
▁추진하고	-4407
▁래	-4408
▁아쉬	-4409
회와	-4410
▁하여	-4411
▁캐나다	-4412
든지	-4413
▁보상	-4414
▁김현	-4415
▁자율주행	-4416
▁입법	-4417
▁아이폰	-4418
▁책을	-4419
▁질병	-4420
동계올림픽	-4421
▁거짓	-4422
통상	-4423
▁상향	-4424
단과	-4425
체험	-4426
▁적폐	-4427
드가	-4428
하려고	-4429
▁굉장	-4430
▁주인공	-4431
리트	-4432
▁홍준표	-4433
▁투명	-4434
가량	-4435
▁회계	-4436
년생	-4437
▁후보를	-4438
▁금호	-4439
보았다	-4440
▁고소	-4441
▁부상	-4442
▁우수한	-4443
▁항상	-4444
어로	-4445
▁긴장	-4446
▁제목	-4447
▁천안	-4448
▁여당	-4449
▁운영하고	-4450
▁즉각	-4451
▁공기	-4452
▁비트	-4453
포럼	-4454
▁설득	-4455
수요	-4456
▁권력	-4457
화하고	-4458
▁혼란	-4459
▁분노	-4460
▁중국은	-4461
▁여부	-4462
▁소녀	-4463
▁부탁	-4464
함에	-4465
▁아들	-4466
▁이승	-4467
함이	-4468
▁정착	-4469
산이	-4470
▁토대로	-4471
가락	-4472
▁쌀	-4473
▁시리아	-4474
졌고	-4475
▁회의를	-4476
▁점점	-4477
▁바른미래당	-4478
▁통제	-4479
▁추구	-4480
수산	-4481
▁청와대는	-4482
▁지방자치	-4483
공장	-4484
▁이제는	-4485
음에도	-4486
태를	-4487
▁과도	-4488
▁맹	-4489
▁노후	-4490
▁민주주의	-4491
선에서	-4492
▁협력을	-4493
▁문제로	-4494
▁위안부	-4495
▁있으나	-4496
▁차지했다	-4497
설팅	-4498
▁임원	-4499
세는	-4500
▁슈퍼	-4501
▁부담이	-4502
일과	-4503
▁부당	-4504
국을	-4505
동에	-4506
검사	-4507
힌다	-4508
▁관객	-4509
▁런	-4510
▁그것이	-4511
주년	-4512
▁알려져	-4513
▁점도	-4514
▁벤	-4515
세에	-4516
실로	-4517
▁예고	-4518
▁개성	-4519
▁복귀	-4520
▁요구하는	-4521
▁폼	-4522
인에	-4523
▁것이고	-4524
▁형태로	-4525
▁독자	-4526
봉사	-4527
▁조언	-4528
▁발언을	-4529
권은	-4530
▁반려	-4531
▁흉	-4532
터리	-4533
명했다	-4534
▁유족	-4535
이너	-4536
▁털	-4537
추진	-4538
▁실내	-4539
네시아	-4540
▁구청	-4541
▁행위	-4542
▁낭	-4543
체계	-4544
심히	-4545
▁반박	-4546
▁봤	-4547
합의	-4548
▁제시했다	-4549
▁시리즈	-4550
▁이정	-4551
▁아무런	-4552
실장	-4553
▁사건이	-4554
▁스위	-4555
▁사우	-4556
▁눈이	-4557
▁김종	-4558
▁곳에	-4559
▁합병	-4560
▁총괄	-4561
▁남부	-4562
▁수업	-4563
▁특파원	-4564
▁보좌	-4565
▁성적	-4566
▁누군	-4567
▁올린	-4568
▁방향으로	-4569
▁전기차	-4570
▁뭔	-4571
▁생긴	-4572
▁기자가	-4573
호가	-4574
였고	-4575
▁비교해	-4576
▁대표의	-4577
▁유입	-4578
▁군산	-4579
▁이용한	-4580
관계를	-4581
▁검은	-4582
▁싫	-4583
▁핀	-4584
▁초등학교	-4585
▁점차	-4586
▁사이버	-4587
▁공무	-4588
▁시민단체	-4589
면적	-4590
신이	-4591
전은	-4592
▁인사를	-4593
드러	-4594
▁바꿔	-4595
▁동영	-4596
배를	-4597
▁산림	-4598
물질	-4599
력으로	-4600
▁필리	-4601
석을	-4602
▁57	-4603
▁서민	-4604
▁계좌	-4605
▁김씨는	-4606
인권	-4607
심이	-4608
▁내에서	-4609
▁일상	-4610
건강	-4611
진의	-4612
에너지	-4613
▁정도의	-4614
▁곳은	-4615
지수	-4616
중공업	-4617
▁된다고	-4618
▁산하	-4619
▁스토	-4620
▁기계	-4621
▁그래도	-4622
▁지속적인	-4623
▁방법을	-4624
▁몰아	-4625
▁이었다	-4626
▁모니터	-4627
▁for	-4628
라엘	-4629
▁만남	-4630
영화	-4631
억원에	-4632
▁저렴	-4633
▁징계	-4634
드로	-4635
법이	-4636
▁치료를	-4637
▁d	-4638
▁깔	-4639
▁NH	-4640
▁사내	-4641
▁기회가	-4642
▁당일	-4643
▁신분	-4644
오고	-4645
▁애초	-4646
▁이때	-4647
▁춘천	-4648
▁현황	-4649
전거	-4650
듯이	-4651
▁트렌	-4652
▁캠프	-4653
▁취득	-4654
▁힘든	-4655
▁터키	-4656
▁중심의	-4657
▁개의	-4658
▁급격	-4659
건에	-4660
▁원자	-4661
계층	-4662
되자	-4663
효과	-4664
▁자살	-4665
▁나아가	-4666
▁위치했다	-4667
▁내일	-4668
▁침해	-4669
도미사일	-4670
▁무너	-4671
▁수급	-4672
▁시사	-4673
▁훌	-4674
▁테이	-4675
▁화성	-4676
▁어깨	-4677
ic	-4678
▁더해	-4679
일까	-4680
▁금융감독	-4681
▁컸	-4682
▁있었고	-4683
종을	-4684
▁커뮤니	-4685
▁내다봤다	-4686
점과	-4687
▁국민이	-4688
놨다	-4689
▁개설	-4690
연맹	-4691
▁방향을	-4692
▁53	-4693
졌다고	-4694
대비	-4695
▁그녀의	-4696
▁잡고	-4697
▁양성	-4698
▁끝난	-4699
기념	-4700
▁르	-4701
▁진행할	-4702
▁인용	-4703
▁TOP	-4704
▁밟	-4705
▁눈길을	-4706
▁들어서	-4707
▁순매수	-4708
▁측면에서	-4709
▁칠	-4710
▁벨	-4711
▁수주	-4712
▁쪽으로	-4713
▁이뤄진	-4714
▁노동당	-4715
▁p	-4716
집을	-4717
체의	-4718
호선	-4719
▁수준이다	-4720
인터	-4721
▁2002	-4722
▁제공하고	-4723
전의	-4724
▁청주	-4725
▁선보인다	-4726
▁살해	-4727
▁본격적으로	-4728
▁테마	-4729
▁한정	-4730
▁반응을	-4731
▁바란다고	-4732
군을	-4733
▁일대	-4734
▁메뉴	-4735
▁복잡	-4736
▁2003	-4737
▁월드컵	-4738
▁양측	-4739
화할	-4740
▁해운	-4741
▁결코	-4742
▁유력	-4743
미를	-4744
▁의혹이	-4745
▁응원	-4746
▁전형	-4747
▁끈	-4748
▁EU	-4749
▁쥐	-4750
▁김대	-4751
됐다는	-4752
▁경쟁력을	-4753
아이	-4754
▁협조	-4755
▁마음이	-4756
▁발표된	-4757
▁몽	-4758
ing	-4759
▁찾은	-4760
중인	-4761
▁년	-4762
MW	-4763
▁놀라	-4764
▁성장을	-4765
▁대리	-4766
▁때도	-4767
물의	-4768
▁한국과	-4769
▁사고가	-4770
▁종료	-4771
▁의견이	-4772
▁인도네시아	-4773
▁처음이다	-4774
법은	-4775
▁키워	-4776
▁널	-4777
▁대처	-4778
▁기준을	-4779
▁마치고	-4780
▁매입	-4781
STO	-4782
일보	-4783
▁않게	-4784
시까지	-4785
▁이상을	-4786
▁불거	-4787
▁집권	-4788
센터를	-4789
▁지연	-4790
▁그간	-4791
▁세워	-4792
▁보여주는	-4793
가격	-4794
▁있었지만	-4795
▁커지고	-4796
▁신문	-4797
의료	-4798
▁아무리	-4799
▁개통	-4800
만여	-4801
차로	-4802
▁사업은	-4803
▁득	-4804
직한	-4805
▁면담	-4806
le	-4807
▁전공	-4808
▁승인	-4809
▁실종	-4810
▁뒤에	-4811
▁자리에	-4812
▁석유	-4813
▁적지	-4814
▁이르는	-4815
문제	-4816
시장에서	-4817
▁1.	-4818
▁풀이된다	-4819
▁뇌물	-4820
▁게다가	-4821
▁일방	-4822
▁말이다	-4823
▁쾌	-4824
▁코리아	-4825
▁올리	-4826
▁샌	-4827
▁구분	-4828
월드	-4829
▁받게	-4830
화는	-4831
화한	-4832
미널	-4833
▁적합	-4834
▁다이	-4835
선으로	-4836
▁간편	-4837
▁기재	-4838
▁120	-4839
▁블록체인	-4840
▁무상	-4841
▁늘고	-4842
▁빗	-4843
▁미래를	-4844
▁제공할	-4845
증이	-4846
▁국무총	-4847
▁이스라엘	-4848
위원회의	-4849
▁끌고	-4850
▁결과에	-4851
▁힘이	-4852
▁굉장히	-4853
▁후보자	-4854
▁동계올림픽	-4855
▁아버지	-4856
▁문학	-4857
▁전무	-4858
수와	-4859
▁기획재정부	-4860
자고	-4861
▁제정	-4862
같이	-4863
급을	-4864
부터는	-4865
▁공론	-4866
▁교환	-4867
▁호주	-4868
▁경계	-4869
▁사람들	-4870
▁CE	-4871
200	-4872
▁따로	-4873
▁아니었다	-4874
▁숨진	-4875
▁물을	-4876
▁일정을	-4877
화로	-4878
위와	-4879
RIES	-4880
수에	-4881
▁떠오	-4882
▁추모	-4883
말을	-4884
STORIES	-4885
▁TOPSTORIES	-4886
▁나이	-4887
상담	-4888
▁체육	-4889
국가	-4890
▁아닌가	-4891
▁모두가	-4892
▁비즈니스	-4893
▁시가총	-4894
▁계산	-4895
▁플레이	-4896
▁일이다	-4897
▁기조	-4898
소의	-4899
자료	-4900
▁상관	-4901
▁기대된다	-4902
됐지만	-4903
▁보관	-4904
▁묶	-4905
▁국민연금	-4906
▁미군	-4907
▁평창동계올림픽	-4908
▁기존의	-4909
케어	-4910
27	-4911
어버	-4912
▁떨어져	-4913
▁이유를	-4914
▁잇따라	-4915
▁입은	-4916
▁대외	-4917
▁품목	-4918
▁사람들의	-4919
▁소형	-4920
▁특성	-4921
▁문의	-4922
▁말까지	-4923
▁매도	-4924
치게	-4925
▁스피	-4926
▁임상	-4927
▁매달	-4928
류의	-4929
치의	-4930
▁부채	-4931
▁느낄	-4932
기능	-4933
▁겨냥	-4934
▁김태	-4935
▁총재	-4936
론이	-4937
▁그만	-4938
▁데다	-4939
▁덮	-4940
가스	-4941
▁예정이라고	-4942
▁한국은	-4943
▁공포	-4944
▁발생하는	-4945
▁자문	-4946
▁공시	-4947
▁후반	-4948
▁파괴	-4949
▁모르는	-4950
▁만들었다	-4951
▁내는	-4952
루션	-4953
됐으며	-4954
▁길이	-4955
▁64	-4956
▁비중이	-4957
위기	-4958
▁54	-4959
▁메시지를	-4960
▁돌아가	-4961
▁뮤지	-4962
책임	-4963
▁장면	-4964
▁리스크	-4965
▁것이라	-4966
▁모임	-4967
하려면	-4968
교육청	-4969
▁영양	-4970
▁입고	-4971
▁상업	-4972
해주는	-4973
협정	-4974
▁필리핀	-4975
▁상승했다	-4976
▁분위기를	-4977
▁교수가	-4978
▁줄었다	-4979
플러스	-4980
선수	-4981
90	-4982
▁창의	-4983
▁말한	-4984
▁추진할	-4985
다시	-4986
▁그에	-4987
▁아예	-4988
자들	-4989
치료	-4990
▁확충	-4991
화문	-4992
지며	-4993
년도	-4994
▁쓰고	-4995
▁균형	-4996
▁당분간	-4997
개선	-4998
▁말에	-4999
니어	-5000
▁진행했다	-5001
▁부적	-5002
▁성추행	-5003
23	-5004
박물	-5005
▁수시	-5006
▁목적으로	-5007
▁정황	-5008
▁두려	-5009
▁의뢰	-5010
스에서	-5011
팀이	-5012
▁관여	-5013
복을	-5014
▁가깝	-5015
▁홈페이지	-5016
법상	-5017
▁중장	-5018
▁벌금	-5019
as	-5020
▁of	-5021
조건	-5022
▁같아	-5023
▁부실	-5024
간에	-5025
▁대사	-5026
▁수집	-5027
국에	-5028
▁정무	-5029
▁제도를	-5030
▁무죄	-5031
여행	-5032
▁준공	-5033
▁84	-5034
▁소식	-5035
▁100%	-5036
▁세대	-5037
▁북미정상회담	-5038
▁받아들이	-5039
▁예산을	-5040
▁신입	-5041
▁대부분의	-5042
▁현재의	-5043
▁연령	-5044
▁열심히	-5045
▁세금	-5046
▁세상을	-5047
▁펜	-5048
▁정부에	-5049
키는	-5050
▁간단	-5051
단으로	-5052
기금	-5053
▁58	-5054
▁용인	-5055
센터는	-5056
경쟁	-5057
▁공화	-5058
▁연구개발	-5059
▁서류	-5060
nd	-5061
통합	-5062
사이	-5063
▁김기	-5064
천여	-5065
▁항소	-5066
▁라인	-5067
봐야	-5068
▁수렴	-5069
▁당내	-5070
▁출전	-5071
▁안정적인	-5072
2000	-5073
▁이어지고	-5074
▁역량을	-5075
▁st	-5076
동이	-5077
▁살고	-5078
▁분야의	-5079
▁씨의	-5080
▁물리	-5081
어져	-5082
▁비교적	-5083
▁자극	-5084
▁삼성전자는	-5085
대문	-5086
▁생각하는	-5087
▁아는	-5088
치에	-5089
▁지원한다	-5090
▁논의를	-5091
▁편성	-5092
▁머리를	-5093
▁들려	-5094
▁한나라당	-5095
▁Y	-5096
▁했는데	-5097
▁아직도	-5098
주년을	-5099
▁막기	-5100
▁194	-5101
▁김해	-5102
▁말하는	-5103
▁핵무	-5104
▁대만	-5105
▁경비	-5106
▁어려워	-5107
▁시상	-5108
21	-5109
▁원장은	-5110
▁저희	-5111
▁대통령에게	-5112
▁정의당	-5113
▁비트코	-5114
▁항의	-5115
조직	-5116
고기	-5117
▁있음을	-5118
▁한마	-5119
▁발전을	-5120
▁서울시장	-5121
리티	-5122
▁패키	-5123
▁무게	-5124
▁공정거래	-5125
▁앞장	-5126
▁기자회견	-5127
▁오피스	-5128
▁먹고	-5129
▁승객	-5130
호는	-5131
▁연극	-5132
다니	-5133
▁도내	-5134
▁일자리를	-5135
▁특징이다	-5136
▁경우에는	-5137
등록	-5138
▁아프리카	-5139
▁동맹	-5140
▁붕	-5141
▁측정	-5142
▁이영	-5143
▁벌이고	-5144
▁고위급	-5145
▁최적	-5146
▁고등학교	-5147
▁동북	-5148
▁편리	-5149
▁풀어	-5150
담당	-5151
디아	-5152
인에게	-5153
▁이사회	-5154
인들은	-5155
통화	-5156
▁폼페이	-5157
▁진정	-5158
기자	-5159
▁된다는	-5160
시코	-5161
▁산업혁명	-5162
▁참여해	-5163
▁면세	-5164
▁속도를	-5165
▁조례	-5166
치로	-5167
부처	-5168
▁붙잡	-5169
▁상상	-5170
▁섹	-5171
▁이뤄질	-5172
▁집을	-5173
▁브라질	-5174
▁이주	-5175
▁정상회담을	-5176
▁하겠다	-5177
▁퇴직	-5178
▁맞은	-5179
▁농촌	-5180
▁현직	-5181
▁나도	-5182
▁방북	-5183
본부는	-5184
▁증정	-5185
▁겪고	-5186
안과	-5187
상승	-5188
▁아닐	-5189
▁높였다	-5190
▁시민들이	-5191
▁인지	-5192
아시아	-5193
▁딱	-5194
▁집에	-5195
▁태양광	-5196
▁새누리당	-5197
▁탄핵	-5198
▁전략을	-5199
▁미치는	-5200
▁해당하는	-5201
▁발생할	-5202
원들이	-5203
▁영향으로	-5204
▁갔	-5205
▁렌	-5206
▁맞이	-5207
▁보급	-5208
사회의	-5209
▁능력을	-5210
▁들어갔다	-5211
철도	-5212
시대	-5213
용품	-5214
▁지역을	-5215
▁축하	-5216
▁경쟁력	-5217
▁입증	-5218
▁인생	-5219
▁뒤로	-5220
▁부족한	-5221
해졌다	-5222
란히	-5223
▁주행	-5224
▁점포	-5225
▁계기가	-5226
▁맞추	-5227
▁담아	-5228
▁외환	-5229
스티벌	-5230
▁치러	-5231
협의회	-5232
▁펴	-5233
▁검출	-5234
▁보건복지	-5235
▁전원	-5236
▁대륙	-5237
▁변화가	-5238
▁탄생	-5239
▁끄	-5240
▁다행	-5241
▁개선을	-5242
▁BMW	-5243
와는	-5244
▁쇠	-5245
▁상당한	-5246
사이트	-5247
▁쓰러	-5248
▁마시	-5249
그룹은	-5250
▁하락했다	-5251
▁준다	-5252
▁실시간으로	-5253
▁전세계	-5254
평을	-5255
▁뛰어난	-5256
▁행사는	-5257
일의	-5258
▁십	-5259
▁건조	-5260
▁아니면	-5261
▁오염	-5262
▁이벤트를	-5263
향이	-5264
▁남녀	-5265
타운	-5266
심사	-5267
피해	-5268
▁사무총	-5269
▁점수를	-5270
▁대상이	-5271
▁공개했다	-5272
의회	-5273
▁이유가	-5274
▁협상을	-5275
▁미래에	-5276
▁진행되는	-5277
▁여유	-5278
▁빙	-5279
결을	-5280
▁전망된다	-5281
▁값	-5282
계에	-5283
▁유권	-5284
행위	-5285
▁재배	-5286
리도	-5287
▁배당	-5288
▁곧바로	-5289
▁진행됐다	-5290
님의	-5291
▁증언	-5292
▁폼페이오	-5293
▁연다	-5294
▁땇	-5295
리게	-5296
▁물류	-5297
드의	-5298
▁동참	-5299
▁모습이다	-5300
▁무관	-5301
실은	-5302
▁후보의	-5303
▁고용노동	-5304
▁일주	-5305
▁2.	-5306
▁안전한	-5307
▁원인	-5308
▁지지를	-5309
▁명령	-5310
▁말해	-5311
▁김상	-5312
▁깨끗	-5313
▁존중	-5314
▁알게	-5315
▁그럴	-5316
로가	-5317
28	-5318
▁평생	-5319
친다	-5320
▁아우	-5321
▁투기	-5322
▁좋지	-5323
▁출산	-5324
▁과연	-5325
▁의장	-5326
▁불이	-5327
▁사이트	-5328
췄다	-5329
용차	-5330
▁맡고	-5331
▁엄청난	-5332
▁국세	-5333
▁없습니다	-5334
절을	-5335
께서	-5336
▁멋	-5337
▁꼼	-5338
▁수백	-5339
▁누적	-5340
▁괜	-5341
간담	-5342
▁사업이	-5343
▁지표	-5344
곳에	-5345
▁가격은	-5346
▁일시	-5347
소송	-5348
▁발휘	-5349
▁어울	-5350
소와	-5351
▁광화문	-5352
▁자전거	-5353
▁한강	-5354
평등	-5355
여서	-5356
▁여성의	-5357
▁참여할	-5358
▁장학	-5359
▁나눔	-5360
었으며	-5361
▁부분이	-5362
민의	-5363
▁그만큼	-5364
▁있다면서	-5365
생산	-5366
▁승리	-5367
▁CEO	-5368
▁판단했다	-5369
▁소리를	-5370
▁협업	-5371
곳을	-5372
▁41	-5373
▁했다는	-5374
▁대단	-5375
▁보증	-5376
▁인간의	-5377
▁금강	-5378
공헌	-5379
▁죽음	-5380
아무	-5381
▁앨	-5382
▁잠재	-5383
▁해상	-5384
▁충격	-5385
▁분쟁	-5386
▁비용을	-5387
▁쏘	-5388
▁만날	-5389
시설을	-5390
가와	-5391
▁잘못된	-5392
감한	-5393
권과	-5394
▁줄어든	-5395
▁아니고	-5396
나마	-5397
▁까지	-5398
▁철저히	-5399
▁시정	-5400
▁나선다	-5401
▁195	-5402
▁긴밀	-5403
▁이마트	-5404
▁나타난	-5405
▁있으	-5406
▁승진	-5407
타임	-5408
기온	-5409
멕시코	-5410
▁맡은	-5411
발을	-5412
스탄	-5413
았다고	-5414
▁기대하고	-5415
▁김용	-5416
▁발생했다	-5417
역에서	-5418
▁경우도	-5419
▁감시	-5420
▁AP	-5421
▁63	-5422
▁달라고	-5423
▁넥	-5424
▁건의	-5425
▁블루	-5426
▁않았다고	-5427
대사	-5428
26	-5429
▁종로구	-5430
▁이어지는	-5431
미술	-5432
▁마련했다	-5433
▁가야	-5434
▁농협	-5435
▁지원할	-5436
▁고정	-5437
▁감정	-5438
이야	-5439
▁진짜	-5440
▁약간	-5441
잖아	-5442
▁이어졌다	-5443
명에게	-5444
▁의식	-5445
▁발효	-5446
세의	-5447
▁근로자	-5448
▁나섰	-5449
▁우주	-5450
▁서울시는	-5451
▁떼	-5452
천만	-5453
순환	-5454
▁소개했다	-5455
▁이번이	-5456
보증	-5457
▁부산시	-5458
▁영상을	-5459
▁초등	-5460
▁차기	-5461
▁전부터	-5462
▁이슬	-5463
▁연주	-5464
▁보복	-5465
▁공동으로	-5466
물로	-5467
▁파리	-5468
경찰청	-5469
▁드러나	-5470
▁그들이	-5471
▁그렇지	-5472
▁높게	-5473
▁탑승	-5474
▁종전	-5475
▁백악관	-5476
▁추진하는	-5477
참여	-5478
▁맑	-5479
▁그게	-5480
▁개발을	-5481
층의	-5482
지인	-5483
기까지	-5484
짜리	-5485
▁민주당은	-5486
별로는	-5487
▁상태에서	-5488
▁투쟁	-5489
▁저소득	-5490
▁북한을	-5491
▁교육감	-5492
▁보유하고	-5493
▁PC	-5494
에스	-5495
▁유니	-5496
▁탓에	-5497
해질	-5498
▁들어간	-5499
▁오프	-5500
▁마주	-5501
미나	-5502
▁FTA	-5503
판매	-5504
▁택시	-5505
▁방어	-5506
▁평택	-5507
▁내달	-5508
스포츠	-5509
았지만	-5510
▁85	-5511
▁높여	-5512
▁미만	-5513
억원이	-5514
능력	-5515
▁최초의	-5516
▁기록한	-5517
▁국내에서	-5518
사건	-5519
▁필요하다는	-5520
마켓	-5521
▁포럼	-5522
▁감독은	-5523
공연	-5524
▁최신	-5525
▁여성이	-5526
29	-5527
▁고향	-5528
▁재판에	-5529
▁지출	-5530
▁68	-5531
료가	-5532
▁해수	-5533
▁본부	-5534
공을	-5535
▁살인	-5536
자도	-5537
보건	-5538
▁돌입	-5539
▁분기	-5540
▁방한	-5541
▁보고서	-5542
▁신체	-5543
판에	-5544
▁금액	-5545
▁뚜렷	-5546
▁역사를	-5547
▁재활	-5548
▁숫	-5549
▁엉	-5550
▁67	-5551
▁편집	-5552
된다는	-5553
35	-5554
메달	-5555
생명	-5556
▁확대해	-5557
여개	-5558
▁후에	-5559
▁교섭	-5560
▁쓰레	-5561
▁위원장의	-5562
▁분석을	-5563
▁목숨을	-5564
▁먹는	-5565
mu	-5566
▁계란	-5567
장도	-5568
▁업무협	-5569
▁입장이다	-5570
▁격려	-5571
하니	-5572
▁감소했다	-5573
▁전담	-5574
타이어	-5575
▁사건의	-5576
시간을	-5577
▁가서	-5578
드리	-5579
▁현장에	-5580
아무개	-5581
▁세계적인	-5582
▁활용할	-5583
형이	-5584
▁방해	-5585
▁시급	-5586
프로그램	-5587
▁방식을	-5588
▁이건	-5589
▁거래를	-5590
▁재벌	-5591
▁깜	-5592
르지	-5593
▁작성한	-5594
▁파이	-5595
▁숙박	-5596
▁25%	-5597
▁규모는	-5598
▁사기	-5599
▁청탁	-5600
케이션	-5601
▁평창올림픽	-5602
▁것인지	-5603
▁후보로	-5604
▁열렸다	-5605
▁대거	-5606
▁수험	-5607
▁문화재	-5608
▁유일한	-5609
먼트	-5610
▁조만	-5611
심에서	-5612
장에게	-5613
▁수소	-5614
주도	-5615
▁한층	-5616
▁구체적으로	-5617
▁수학	-5618
▁GM	-5619
▁치매	-5620
▁봤다	-5621
▁사례가	-5622
▁강의	-5623
▁궁금	-5624
▁방문한	-5625
▁쫓	-5626
▁멤	-5627
카이	-5628
▁다수	-5629
▁성격	-5630
▁떨어졌다	-5631
▁산업통상	-5632
▁멕시코	-5633
▁나아	-5634
▁점유	-5635
▁높이고	-5636
예산	-5637
▁중국과	-5638
▁증권사	-5639
▁동부	-5640
해왔	-5641
▁별로	-5642
▁없지만	-5643
▁요청했다	-5644
▁로드	-5645
▁지방자치단체	-5646
▁충전	-5647
▁마련해	-5648
▁실적을	-5649
▁한때	-5650
▁강화하고	-5651
▁박원	-5652
▁가고	-5653
▁응급	-5654
▁주장을	-5655
▁호흡	-5656
▁예를	-5657
31	-5658
▁컨설팅	-5659
▁조명	-5660
▁토지	-5661
▁송파	-5662
▁일환	-5663
▁강화를	-5664
▁방사	-5665
▁붉은	-5666
공사는	-5667
▁파업	-5668
▁마찬가지로	-5669
▁전후	-5670
▁고속도로	-5671
▁근처	-5672
▁대표와	-5673
하자는	-5674
플러	-5675
▁손에	-5676
하기는	-5677
준비	-5678
▁조절	-5679
▁닫	-5680
▁중도	-5681
고가	-5682
▁가스	-5683
▁미칠	-5684
▁조달	-5685
▁아이들이	-5686
▁환경을	-5687
▁남북관계	-5688
만원에	-5689
22	-5690
▁소송을	-5691
▁입찰	-5692
멘텀	-5693
▁두산	-5694
▁급등	-5695
▁스페인	-5696
▁짧은	-5697
계획을	-5698
승을	-5699
수준	-5700
▁최근에는	-5701
인당	-5702
▁됩니다	-5703
르크	-5704
▁40%	-5705
▁완벽	-5706
▁결정했다	-5707
▁명시	-5708
수한	-5709
▁이익을	-5710
▁높았다	-5711
▁조속	-5712
▁무료로	-5713
▁텐	-5714
▁없애	-5715
장비	-5716
▁암호	-5717
▁전당	-5718
▁협의를	-5719
▁사회공헌	-5720
▁않는다는	-5721
▁지목	-5722
▁이번에는	-5723
▁2022	-5724
▁몰려	-5725
▁공연을	-5726
▁김진	-5727
하다가	-5728
▁이들을	-5729
은행이	-5730
는가	-5731
▁합의를	-5732
▁신청을	-5733
여명의	-5734
▁활성화를	-5735
▁화려	-5736
▁차원의	-5737
▁마쳤다	-5738
▁간부	-5739
▁물어	-5740
▁곳에서	-5741
▁한중	-5742
▁개인정보	-5743
▁도는	-5744
▁선정된	-5745
▁600	-5746
▁발달	-5747
▁정밀	-5748
▁CC	-5749
▁조만간	-5750
▁이종	-5751
▁한국에	-5752
조작	-5753
탄을	-5754
을까	-5755
▁정식	-5756
분쯤	-5757
▁산업통상자원	-5758
▁메르	-5759
아버	-5760
▁주지	-5761
▁출근	-5762
하라는	-5763
▁확대를	-5764
▁경선	-5765
▁진료	-5766
▁기업으로	-5767
▁99	-5768
▁부작용	-5769
▁내지	-5770
▁김모	-5771
▁말했습니다	-5772
▁높이는	-5773
년과	-5774
▁논의가	-5775
▁뼈	-5776
▁조심	-5777
▁부분을	-5778
▁비대	-5779
시장의	-5780
▁충청	-5781
▁디스플레이	-5782
▁한달	-5783
GM	-5784
▁과제	-5785
▁계열사	-5786
▁문제의	-5787
▁주장이	-5788
▁적용해	-5789
▁체제	-5790
▁모멘텀	-5791
▁됐다고	-5792
질의	-5793
▁여기서	-5794
▁국가안보	-5795
▁연설	-5796
토록	-5797
지어	-5798
▁검토하고	-5799
동물	-5800
▁경상	-5801
▁김포	-5802
▁김재	-5803
고용	-5804
▁오바	-5805
▁전화를	-5806
▁양산	-5807
통을	-5808
▁차세대	-5809
▁달아	-5810
▁납품	-5811
▁여론조사	-5812
▁서울중앙지검	-5813
▁강연	-5814
▁긍정적인	-5815
▁간호	-5816
▁획득	-5817
▁폭력	-5818
신청	-5819
▁절감	-5820
▁보일	-5821
▁하겠다고	-5822
류가	-5823
3000	-5824
▁해군	-5825
▁프레	-5826
▁충분한	-5827
▁싶어	-5828
▁매출이	-5829
▁가수	-5830
▁웨	-5831
▁틈	-5832
▁철거	-5833
처분	-5834
▁늘어날	-5835
았습니다	-5836
▁검찰의	-5837
▁평화의	-5838
▁포함된	-5839
▁올랐	-5840
끄러	-5841
▁미국에	-5842
▁부대	-5843
근로	-5844
▁사용한	-5845
요금	-5846
나갈	-5847
▁저장	-5848
▁칭	-5849
▁66	-5850
▁단순히	-5851
▁자영업	-5852
▁한국을	-5853
▁매체	-5854
들었다	-5855
▁문화예술	-5856
▁기대한다	-5857
▁식으로	-5858
작업	-5859
▁객관	-5860
▁내외	-5861
▁복원	-5862
▁기소된	-5863
▁이것은	-5864
▁공통	-5865
▁밖으로	-5866
▁공익	-5867
▁깊이	-5868
▁갖춰	-5869
▁드론	-5870
▁관계가	-5871
▁밴	-5872
전형	-5873
▁별도로	-5874
▁성폭행	-5875
지요	-5876
▁제조업	-5877
학적	-5878
▁군은	-5879
SI	-5880
였지만	-5881
▁문건	-5882
소비	-5883
▁거대한	-5884
▁51	-5885
▁시위	-5886
▁대피	-5887
▁꽤	-5888
위원회에	-5889
▁건강보험	-5890
▁말은	-5891
▁북한과	-5892
미디어	-5893
▁중부	-5894
▁점이다	-5895
▁고등	-5896
▁본인	-5897
시오	-5898
▁어린이집	-5899
▁작품을	-5900
▁보입니다	-5901
▁교육부	-5902
▁인민	-5903
▁고도	-5904
▁발급	-5905
▁학술	-5906
로의	-5907
▁입장이	-5908
시장은	-5909
▁일하는	-5910
▁휴대전화	-5911
▁수사에	-5912
줘야	-5913
▁건강한	-5914
비로	-5915
▁실질적인	-5916
▁벌써	-5917
장인	-5918
▁목표를	-5919
층에	-5920
행사	-5921
보장	-5922
▁오바마	-5923
잡고	-5924
제약	-5925
▁캠페	-5926
▁기술이	-5927
▁MB	-5928
▁육아	-5929
석이	-5930
▁찌	-5931
▁헌법재판	-5932
▁정해	-5933
▁건너	-5934
▁작동	-5935
크를	-5936
라우드	-5937
▁햇	-5938
▁최소한	-5939
▁맞서	-5940
▁민생	-5941
▁허가	-5942
▁78	-5943
시장이	-5944
▁우려를	-5945
▁않았지만	-5946
▁유명한	-5947
▁사전에	-5948
▁날아	-5949
▁행정안전	-5950
▁따뜻한	-5951
식과	-5952
포구	-5953
느냐는	-5954
▁의존	-5955
▁서서	-5956
▁이산	-5957
▁분석이	-5958
▁육군	-5959
들이다	-5960
▁3.	-5961
▁다루	-5962
자유	-5963
확인	-5964
보며	-5965
서와	-5966
역에	-5967
▁아빠	-5968
▁클래	-5969
만은	-5970
복합	-5971
▁청와대가	-5972
름이	-5973
▁유의	-5974
방안을	-5975
mula	-5976
▁사회의	-5977
▁아이를	-5978
▁공간을	-5979
화해	-5980
▁그쳤다	-5981
교육을	-5982
▁목표주	-5983
면으로	-5984
▁닭	-5985
임대	-5986
▁낮추	-5987
▁현장을	-5988
▁수여	-5989
▁무더	-5990
▁미니	-5991
위원은	-5992
▁소요	-5993
▁원활	-5994
▁종사	-5995
수익	-5996
▁있었다고	-5997
경은	-5998
▁부르	-5999
▁전망이	-6000
▁달한다	-6001
▁법안	-6002
▁유발	-6003
▁회사의	-6004
▁꿈을	-6005
▁영장	-6006
▁편안	-6007
▁한해	-6008
▁급여	-6009
▁기자입니다	-6010
▁대체로	-6011
전과	-6012
▁측이	-6013
리다	-6014
▁서울의	-6015
▁뮤지컬	-6016
▁고성	-6017
▁통화에서	-6018
▁가시	-6019
▁뿐이다	-6020
▁튀	-6021
▁기원	-6022
▁것인가	-6023
▁왼쪽	-6024
지주	-6025
▁소셜	-6026
축제	-6027
▁사이에서	-6028
▁회의에서	-6029
▁준비를	-6030
▁학생들의	-6031
▁남측	-6032
▁매력	-6033
물에	-6034
▁집에서	-6035
▁정책에	-6036
▁방법으로	-6037
타워	-6038
▁스튜	-6039
▁충족	-6040
▁다섯	-6041
▁기업에	-6042
자료를	-6043
스키	-6044
▁진행한	-6045
▁그리스	-6046
▁배달	-6047
▁점은	-6048
▁불확	-6049
▁그저	-6050
▁모른다	-6051
▁거야	-6052
▁둘째	-6053
▁공략	-6054
▁주민들이	-6055
▁가맹점	-6056
겠다며	-6057
▁얘기를	-6058
▁국가의	-6059
▁제고	-6060
▁지원하고	-6061
▁곳으로	-6062
처가	-6063
▁내놓은	-6064
▁강요	-6065
▁대안	-6066
년째	-6067
▁기무	-6068
아파트	-6069
▁적절한	-6070
▁전부	-6071
▁fin	-6072
▁성인	-6073
▁이용하는	-6074
습을	-6075
▁얻어	-6076
▁시작해	-6077
▁상용	-6078
▁하자	-6079
▁가졌다	-6080
▁않을까	-6081
서비스를	-6082
▁국정감	-6083
▁유동	-6084
▁제천	-6085
식의	-6086
▁휩	-6087
받침	-6088
▁융합	-6089
▁보존	-6090
▁생각하고	-6091
▁역량	-6092
▁한국이	-6093
내기	-6094
▁기업들이	-6095
▁소외	-6096
▁소상공인	-6097
길이	-6098
▁언어	-6099
재산	-6100
인터넷	-6101
▁추락	-6102
상태	-6103
▁차지하는	-6104
전으로	-6105
시께	-6106
▁동생	-6107
고한	-6108
경찰서는	-6109
례를	-6110
▁끌어올	-6111
파이	-6112
▁유지하고	-6113
하지는	-6114
▁선보인	-6115
▁메모	-6116
▁to	-6117
▁어르	-6118
우리	-6119
▁하였다	-6120
▁쪽은	-6121
계는	-6122
▁formula	-6123
▁시대를	-6124
급여	-6125
▁기각	-6126
▁중순	-6127
▁일어난	-6128
▁신선	-6129
매매	-6130
▁섞	-6131
▁김대중	-6132
▁지역은	-6133
▁전직	-6134
▁분석한	-6135
▁불확실	-6136
▁동기	-6137
했다가	-6138
▁늘려	-6139
▁살펴보면	-6140
▁기후	-6141
▁목포	-6142
▁포털	-6143
▁동시	-6144
심한	-6145
▁시진	-6146
▁커뮤니티	-6147
▁영등	-6148
▁모으	-6149
▁청소	-6150
▁신흥	-6151
6000	-6152
▁붕괴	-6153
폭을	-6154
▁포착	-6155
▁고객이	-6156
▁말할	-6157
▁편의점	-6158
▁없었던	-6159
▁무릎	-6160
▁해결을	-6161
비와	-6162
회로	-6163
▁다녀	-6164
▁X	-6165
▁대비해	-6166
▁여수	-6167
▁서부	-6168
처는	-6169
▁하더라도	-6170
▁전세	-6171
였다고	-6172
▁별도의	-6173
▁문자	-6174
시장에	-6175
▁현안	-6176
▁창조	-6177
▁없도록	-6178
양을	-6179
▁도시재생	-6180
▁앤	-6181
▁화물	-6182
▁사건에	-6183
▁가공	-6184
님은	-6185
테인	-6186
▁02	-6187
▁모니터링	-6188
▁덕분에	-6189
▁총리가	-6190
▁지낸	-6191
▁수색	-6192
▁어떠	-6193
▁왜곡	-6194
▁CN	-6195
▁경험이	-6196
▁또다시	-6197
▁민주노총	-6198
제공	-6199
리즘	-6200
▁소리가	-6201
관으로	-6202
▁어려울	-6203
▁중동	-6204
방이	-6205
▁안심	-6206
▁남해	-6207
▁콘텐츠를	-6208
▁곁	-6209
로그	-6210
▁동네	-6211
▁무려	-6212
▁사업의	-6213
▁개발에	-6214
졌다는	-6215
▁과정에	-6216
역이	-6217
▁지닌	-6218
▁성명을	-6219
▁밀어	-6220
▁마리	-6221
▁시진핑	-6222
▁다짐	-6223
주주	-6224
4000	-6225
▁총선	-6226
▁권리	-6227
▁실업	-6228
▁폭로	-6229
▁상태로	-6230
▁섭취	-6231
▁신제품	-6232
▁법무부	-6233
▁천연	-6234
▁느꼈	-6235
▁함께하는	-6236
▁세탁	-6237
▁않는다고	-6238
은행의	-6239
방에	-6240
8000	-6241
당에	-6242
▁회사는	-6243
▁변호사는	-6244
▁노선	-6245
▁가전	-6246
해지고	-6247
▁당연히	-6248
▁향한	-6249
▁장을	-6250
▁중학교	-6251
▁노하우	-6252
연한	-6253
▁연금	-6254
▁뜨거운	-6255
▁있겠	-6256
▁가이드	-6257
지다	-6258
▁물었다	-6259
재가	-6260
▁마침	-6261
▁출동	-6262
▁부서	-6263
▁묻는	-6264
▁멤버	-6265
▁70%	-6266
▁순으로	-6267
정책을	-6268
▁차량을	-6269
▁멘	-6270
▁중에서	-6271
▁통해서	-6272
▁진행하는	-6273
▁불구속	-6274
하다며	-6275
▁최순	-6276
부채	-6277
▁않다는	-6278
el	-6279
▁결과는	-6280
운동을	-6281
▁펀	-6282
▁예정된	-6283
▁한일	-6284
▁이밖에	-6285
▁진행될	-6286
▁주목된다	-6287
목으로	-6288
▁주어	-6289
▁창작	-6290
▁사이의	-6291
▁임기	-6292
▁뒤집	-6293
▁논란을	-6294
▁그려	-6295
▁이자	-6296
▁그랬	-6297
▁뚫	-6298
리면서	-6299
▁대표하는	-6300
▁당의	-6301
▁250	-6302
▁바람이	-6303
서트	-6304
히고	-6305
▁경우는	-6306
원한	-6307
▁무산	-6308
▁미투	-6309
위원회에서	-6310
뷰티	-6311
진과	-6312
▁오피스텔	-6313
▁69	-6314
▁너무나	-6315
▁백화점	-6316
문의	-6317
▁내내	-6318
▁다르다	-6319
▁경주	-6320
▁야외	-6321
▁이전에	-6322
▁가게	-6323
▁뒷받침	-6324
▁꼽힌다	-6325
▁횡령	-6326
▁하던	-6327
▁맡아	-6328
▁제휴	-6329
▁제품은	-6330
▁담배	-6331
▁엇	-6332
▁경찰청	-6333
데이	-6334
락을	-6335
▁여러분	-6336
경이	-6337
차별	-6338
▁참여를	-6339
▁TF	-6340
명이다	-6341
EC	-6342
▁행동을	-6343
▁시공	-6344
▁시민들의	-6345
음악	-6346
주의를	-6347
▁부각	-6348
300	-6349
법으로	-6350
▁결론	-6351
▁위탁	-6352
▁청문	-6353
▁순매도	-6354
사업에	-6355
▁처분	-6356
▁가속	-6357
▁이모	-6358
보기	-6359
▁통일부	-6360
피언	-6361
▁없었	-6362
▁사령	-6363
▁받아들여	-6364
쪽에	-6365
▁이것이	-6366
▁성희	-6367
▁찾을	-6368
공정	-6369
▁사장이	-6370
▁이슬람	-6371
스테	-6372
▁때부터	-6373
액의	-6374
실과	-6375
▁중기	-6376
▁아니라고	-6377
▁2030	-6378
▁사회복지	-6379
▁상당의	-6380
▁경남도	-6381
▁지역사회	-6382
군에	-6383
▁보지	-6384
▁엄격	-6385
▁진정한	-6386
▁분위기가	-6387
로드	-6388
▁여객	-6389
▁실태	-6390
▁확인하고	-6391
▁미국에서	-6392
▁74	-6393
놓은	-6394
팀을	-6395
조치	-6396
▁양도	-6397
▁재직	-6398
▁추적	-6399
▁씨를	-6400
▁북부	-6401
▁기자들과	-6402
▁귀국	-6403
▁되돌	-6404
▁시중	-6405
▁런던	-6406
고속도로	-6407
▁선정됐다	-6408
유예	-6409
▁마련됐다	-6410
▁맞게	-6411
▁같았다	-6412
▁납부	-6413
레이드	-6414
▁않다고	-6415
군요	-6416
▁국가정보	-6417
스턴	-6418
▁론	-6419
▁막을	-6420
▁서초구	-6421
▁1990	-6422
▁말로	-6423
▁데이터를	-6424
즈를	-6425
▁자금을	-6426
▁제출한	-6427
▁일관	-6428
▁77	-6429
▁kr	-6430
▁느낀	-6431
▁지금도	-6432
▁박사	-6433
▁그에게	-6434
교육청은	-6435
▁끊임	-6436
▁벤처	-6437
▁중견	-6438
▁반대하는	-6439
시청	-6440
▁친박	-6441
▁성희롱	-6442
▁능력	-6443
▁있을까	-6444
▁사람들을	-6445
▁대표를	-6446
▁착용	-6447
들로부터	-6448
▁장착	-6449
료로	-6450
▁지주	-6451
▁힘입	-6452
▁보인다고	-6453
▁요구를	-6454
▁설문	-6455
▁95	-6456
▁지사는	-6457
▁가능성은	-6458
▁박영	-6459
▁사랑을	-6460
▁의원을	-6461
▁구속영장을	-6462
미가	-6463
▁소프트웨어	-6464
▁엘리	-6465
하였고	-6466
▁곳이다	-6467
▁관람객	-6468
▁적정	-6469
▁속도	-6470
구로	-6471
▁집값	-6472
▁않아도	-6473
▁차를	-6474
▁초래	-6475
▁박원순	-6476
천만원	-6477
▁감축	-6478
il	-6479
▁전략적	-6480
자본	-6481
▁봐야	-6482
▁행복한	-6483
▁신중	-6484
▁내정	-6485
▁가치가	-6486
▁흰	-6487
▁훈	-6488
▁최악	-6489
▁시달	-6490
▁무선	-6491
▁자회사	-6492
▁해제	-6493
달라	-6494
▁넷	-6495
▁유형	-6496
▁방안도	-6497
▁풍부한	-6498
▁어쩌	-6499
▁세무	-6500
이었지만	-6501
▁엠	-6502
버그	-6503
렸고	-6504
▁이른다	-6505
▁기업을	-6506
▁인적	-6507
▁상가	-6508
▁수영	-6509
▁옆에	-6510
▁운항	-6511
▁IP	-6512
▁이뤄졌다	-6513
튜브	-6514
▁본회의	-6515
▁갈수록	-6516
산의	-6517
▁경기를	-6518
▁압도	-6519
▁담고	-6520
▁철저한	-6521
절한	-6522
인도	-6523
▁사안	-6524
▁공산	-6525
부담	-6526
이상	-6527
▁사례를	-6528
여성	-6529
▁연대	-6530
터를	-6531
▁대장	-6532
▁부분은	-6533
양의	-6534
▁안전을	-6535
▁차관	-6536
챔피언	-6537
▁얻을	-6538
됨에	-6539
▁소년	-6540
▁정보통신	-6541
▁시점	-6542
대응	-6543
▁배려	-6544
▁오프라인	-6545
▁이라크	-6546
▁비중을	-6547
▁위축	-6548
▁아이템	-6549
▁유가족	-6550
▁문화를	-6551
▁편이다	-6552
▁갖추고	-6553
창업	-6554
▁오리	-6555
▁수익성	-6556
수인	-6557
▁불어	-6558
포를	-6559
▁약속했다	-6560
▁수험생	-6561
▁몸이	-6562
▁방위	-6563
▁근로시간	-6564
▁란	-6565
▁가리	-6566
주간	-6567
▁진행되고	-6568
▁사건은	-6569
신의	-6570
▁직원들이	-6571
▁피의자	-6572
▁곽	-6573
▁등급	-6574
신고	-6575
▁두번째	-6576
▁담겨	-6577
▁줄여	-6578
▁셰	-6579
▁서울중앙지법	-6580
국장	-6581
▁겹	-6582
늦게	-6583
▁Q	-6584
▁옷을	-6585
▁동작	-6586
센서	-6587
▁환율	-6588
▁동종목	-6589
▁내비	-6590
교류	-6591
구와	-6592
세다	-6593
▁차가	-6594
▁결정할	-6595
▁그건	-6596
▁2001	-6597
들과의	-6598
▁경찰의	-6599
치며	-6600
▁콩	-6601
▁생겨	-6602
시켰	-6603
▁대표이	-6604
▁수리	-6605
▁멀리	-6606
사들의	-6607
▁요리	-6608
▁돈이	-6609
▁보육	-6610
▁극대	-6611
렸습니다	-6612
가며	-6613
▁선보였다	-6614
▁행위를	-6615
▁라디오	-6616
▁예상했다	-6617
▁실시한	-6618
시마	-6619
▁다음날	-6620
▁스크	-6621
▁멜	-6622
▁정치권	-6623
▁72	-6624
▁역사적	-6625
사람	-6626
물은	-6627
주와	-6628
번에	-6629
▁방치	-6630
▁꺾	-6631
▁프로모	-6632
▁신호	-6633
▁넣어	-6634
▁원유	-6635
기반	-6636
▁도민	-6637
▁갔다	-6638
▁보냈다	-6639
대회를	-6640
▁한국에서	-6641
습니까	-6642
▁미국을	-6643
낸다	-6644
▁기록을	-6645
▁휴가	-6646
▁공개한	-6647
▁물가	-6648
▁생활을	-6649
▁확대하고	-6650
▁분야에	-6651
에게도	-6652
▁형태의	-6653
▁한국인	-6654
▁비례	-6655
▁성공적으로	-6656
뒀다	-6657
원이다	-6658
▁열릴	-6659
▁참여했다	-6660
▁아세	-6661
씨에	-6662
▁주한미	-6663
▁제안했다	-6664
▁해고	-6665
▁예정인	-6666
▁현상이	-6667
▁공론화	-6668
▁얻고	-6669
▁신뢰를	-6670
독교	-6671
▁반대로	-6672
▁질의	-6673
▁부부	-6674
▁사립	-6675
▁당한	-6676
▁하나금융	-6677
파가	-6678
▁이미지를	-6679
▁썼다	-6680
▁괜찮	-6681
▁철회	-6682
곳에서	-6683
▁정신을	-6684
장한	-6685
▁말도	-6686
▁1980	-6687
▁스웨	-6688
▁이상으로	-6689
체육관광	-6690
▁것이며	-6691
▁보며	-6692
▁사흘	-6693
▁동일한	-6694
▁운영한다	-6695
▁공군	-6696
▁농민	-6697
▁녹색	-6698
▁멈추	-6699
트리온	-6700
▁창립	-6701
가치	-6702
▁김병	-6703
▁당원	-6704
▁밀려	-6705
▁유죄	-6706
야말로	-6707
▁유아	-6708
▁손님	-6709
▁비율이	-6710
▁조합원	-6711
▁지금의	-6712
▁냄	-6713
▁테이블	-6714
▁가볍	-6715
졌던	-6716
▁구상	-6717
▁가격을	-6718
프가	-6719
▁한은	-6720
▁이민	-6721
▁평화와	-6722
정과	-6723
▁방침을	-6724
▁관해	-6725
▁높아지고	-6726
거리는	-6727
리면	-6728
놀이	-6729
▁장례	-6730
▁조사한	-6731
▁확대할	-6732
▁소식을	-6733
▁셀트리온	-6734
▁서명	-6735
끄는	-6736
▁의도	-6737
▁이동통신	-6738
▁설비	-6739
▁and	-6740
▁냈	-6741
▁진로	-6742
▁오랫	-6743
▁행사에	-6744
차이즈	-6745
▁때가	-6746
▁부회장	-6747
▁전일	-6748
▁한국당은	-6749
▁성향	-6750
▁예비후보	-6751
▁유가	-6752
▁농림	-6753
▁대목	-6754
전자는	-6755
▁주기	-6756
▁협약을	-6757
의견을	-6758
분양	-6759
▁규제를	-6760
축구	-6761
▁인건	-6762
▁부회장은	-6763
▁이하의	-6764
라의	-6765
▁신생	-6766
성한	-6767
▁설치된	-6768
미는	-6769
▁운동을	-6770
국으로	-6771
▁그럼에도	-6772
▁무소	-6773
▁이르면	-6774
▁분석이다	-6775
다란	-6776
▁산업혁	-6777
▁선배	-6778
▁수준에	-6779
▁확인했다	-6780
▁삭제	-6781
▁매주	-6782
▁호응	-6783
▁세상	-6784
▁워크	-6785
oT	-6786
▁태도를	-6787
▁앙	-6788
▁농가	-6789
▁내놨다	-6790
사들은	-6791
▁재발	-6792
▁벌였다	-6793
하겠습니다	-6794
▁현대자동차	-6795
▁지침	-6796
▁조사에	-6797
료는	-6798
개월간	-6799
제재	-6800
살을	-6801
두에	-6802
▁0%	-6803
▁걸려	-6804
▁장소	-6805
▁완전한	-6806
▁언급했다	-6807
▁국회에	-6808
▁참사	-6809
병을	-6810
▁명을	-6811
▁아니라는	-6812
▁흐름을	-6813
▁경매	-6814
▁과도한	-6815
▁로스	-6816
주지	-6817
▁당첨	-6818
▁않지만	-6819
▁사실은	-6820
▁주민들의	-6821
인력	-6822
▁힘입어	-6823
▁얻은	-6824
▁73	-6825
▁in	-6826
▁있으니	-6827
▁김지	-6828
▁꺼내	-6829
사진	-6830
▁88	-6831
▁셋	-6832
▁상환	-6833
▁만찬	-6834
▁인상을	-6835
▁관찰	-6836
▁입건	-6837
▁소규모	-6838
▁이끄는	-6839
▁나쁜	-6840
▁춤	-6841
▁집회	-6842
대강	-6843
▁생각했다	-6844
▁소중한	-6845
▁단말	-6846
▁예외	-6847
▁자발	-6848
행이	-6849
▁팽	-6850
▁않았던	-6851
9000	-6852
▁병역	-6853
▁기업은	-6854
▁끝까지	-6855
▁지속가능	-6856
▁수익을	-6857
▁테스트	-6858
▁측근	-6859
유산	-6860
▁사물	-6861
▁팩	-6862
폭이	-6863
▁추산	-6864
랜차이즈	-6865
학년도	-6866
장치	-6867
지대	-6868
▁RD	-6869
▁개인의	-6870
박한	-6871
▁데이	-6872
▁않았고	-6873
▁기온이	-6874
7000	-6875
한을	-6876
▁물질	-6877
▁부패	-6878
▁벌인	-6879
림을	-6880
▁꼽았다	-6881
▁나타났	-6882
▁좋겠다	-6883
체에	-6884
분석	-6885
▁연관	-6886
▁가짜	-6887
▁않으	-6888
숙한	-6889
▁아니지만	-6890
그룹의	-6891
당과	-6892
▁119	-6893
▁마련된	-6894
▁800	-6895
▁중대	-6896
▁오랫동안	-6897
▁이씨는	-6898
▁출마를	-6899
모를	-6900
▁빠진	-6901
▁번역	-6902
▁어른	-6903
▁수면	-6904
mm	-6905
마자	-6906
▁고객의	-6907
▁취급	-6908
▁기대한다고	-6909
▁있었는데	-6910
라운드	-6911
▁구미	-6912
즈는	-6913
▁항목	-6914
▁해안	-6915
▁명칭	-6916
▁사찰	-6917
▁하향	-6918
CC	-6919
▁마법	-6920
▁강남구	-6921
▁마지막으로	-6922
▁사후	-6923
시장을	-6924
바닥	-6925
▁지명	-6926
▁잉	-6927
▁중고	-6928
ad	-6929
▁젖	-6930
▁금속	-6931
렸던	-6932
계좌	-6933
널리스트	-6934
▁닿	-6935
▁회사가	-6936
▁나중에	-6937
▁추진한다	-6938
▁중국을	-6939
▁용의	-6940
▁조항	-6941
국장은	-6942
▁배터리	-6943
▁캠페인	-6944
▁올바	-6945
▁도서	-6946
▁공영	-6947
▁직원이	-6948
▁만들어진	-6949
심으로	-6950
▁꼴	-6951
▁와서	-6952
할지	-6953
달아	-6954
▁정확히	-6955
자문	-6956
▁극단	-6957
기업의	-6958
▁핸	-6959
▁도덕	-6960
▁대량	-6961
명에서	-6962
▁명절	-6963
▁아이가	-6964
금으로	-6965
▁평범	-6966
기술을	-6967
함과	-6968
▁들은	-6969
미터	-6970
▁않기	-6971
하시	-6972
▁옳	-6973
프는	-6974
▁인사청	-6975
▁문제와	-6976
▁널리	-6977
▁선제	-6978
LED	-6979
바다	-6980
▁대하여	-6981
▁기자간담	-6982
▁상태를	-6983
▁한마디	-6984
실히	-6985
▁의원과	-6986
▁기간에	-6987
▁어르신	-6988
▁거기	-6989
▁사용해	-6990
▁차별화된	-6991
실한	-6992
▁같다고	-6993
▁촉진	-6994
▁모델을	-6995
▁높이기	-6996
파로	-6997
▁임신	-6998
중이다	-6999
▁빌려	-7000
▁마음에	-7001
▁며칠	-7002
▁먹을	-7003
▁부분에	-7004
▁시기에	-7005
시키기	-7006
되기도	-7007
적한	-7008
졌지만	-7009
▁드러난	-7010
▁연구를	-7011
▁부지	-7012
▁일부를	-7013
측은	-7014
▁거친	-7015
▁달했다	-7016
▁높일	-7017
▁이론	-7018
▁앞세	-7019
▁솔루션	-7020
▁고속	-7021
국과	-7022
▁구성해	-7023
▁목격	-7024
▁비율	-7025
도에서	-7026
▁없기	-7027
▁자사	-7028
▁그렇다면	-7029
▁인명	-7030
▁받아야	-7031
브리	-7032
▁찾기	-7033
▁없게	-7034
▁재생	-7035
▁음식을	-7036
▁갈등을	-7037
일리	-7038
▁군사적	-7039
▁부근	-7040
▁유승	-7041
▁관측이	-7042
차에	-7043
기관의	-7044
▁언제나	-7045
▁기여할	-7046
▁회담을	-7047
▁학생들은	-7048
▁결승	-7049
▁IB	-7050
용을	-7051
▁유럽연합	-7052
업종	-7053
▁알리	-7054
▁소폭	-7055
▁되도록	-7056
▁리더십	-7057
▁시대에	-7058
▁보편	-7059
리포	-7060
▁76	-7061
방안	-7062
▁짚	-7063
▁스티	-7064
악한	-7065
▁슬로	-7066
방향	-7067
▁맞지	-7068
▁조사에서	-7069
▁추진해	-7070
온다	-7071
교사	-7072
▁국제사회	-7073
▁스테	-7074
▁ICT	-7075
▁아마존	-7076
범위	-7077
비리	-7078
피아	-7079
▁정책이	-7080
화될	-7081
▁별다른	-7082
폭력	-7083
▁쇼핑몰	-7084
▁연루	-7085
실의	-7086
감과	-7087
르트	-7088
▁주식을	-7089
▁세제	-7090
퍼런	-7091
하이닉	-7092
▁최우수	-7093
▁주장하는	-7094
비의	-7095
▁결론을	-7096
▁밀양	-7097
▁내게	-7098
▁바람에	-7099
▁박정희	-7100
▁전파	-7101
▁겨우	-7102
▁용역	-7103
▁하나가	-7104
▁명품	-7105
협상	-7106
건은	-7107
▁식사	-7108
▁별도	-7109
▁논의할	-7110
▁총장	-7111
▁정작	-7112
▁판결을	-7113
▁훌륭	-7114
▁김성태	-7115
▁y	-7116
자들과	-7117
그러	-7118
▁옹	-7119
100	-7120
▁발령	-7121
▁컬러	-7122
▁칸	-7123
당국은	-7124
르기	-7125
▁돋	-7126
▁추첨	-7127
▁초점을	-7128
▁위험이	-7129
▁운영을	-7130
보다도	-7131
▁연내	-7132
▁비록	-7133
▁위기에	-7134
▁정지	-7135
▁원인을	-7136
▁시민의	-7137
층을	-7138
▁불을	-7139
연히	-7140
린이	-7141
▁나타내고	-7142
▁대립	-7143
▁면역	-7144
▁거래되고	-7145
▁주변에	-7146
▁철학	-7147
원장	-7148
▁미래에셋	-7149
▁해임	-7150
▁손가락	-7151
곳이	-7152
▁추억	-7153
▁긍정적	-7154
▁전수	-7155
▁세미나	-7156
▁홈페이지를	-7157
▁적립	-7158
▁덩	-7159
프를	-7160
▁th	-7161
▁경우에	-7162
ion	-7163
실장은	-7164
▁소화	-7165
▁자연스럽게	-7166
▁벼	-7167
▁대표이사	-7168
▁700	-7169
▁금호타이어	-7170
서로	-7171
▁해체	-7172
▁사고를	-7173
호한	-7174
▁저축	-7175
▁기관이	-7176
▁알리는	-7177
▁민원	-7178
리라	-7179
▁전까지	-7180
▁대한민국의	-7181
▁캘	-7182
▁삼성증권	-7183
동조합	-7184
레인	-7185
▁몸에	-7186
▁이름으로	-7187
▁전달했다	-7188
▁선사	-7189
▁자유롭게	-7190
▁사용자	-7191
▁강행	-7192
전한	-7193
▁한진	-7194
▁선을	-7195
▁뻔	-7196
▁정도가	-7197
▁페스티벌	-7198
▁좌우	-7199
▁삼성바이오	-7200
▁인천공항	-7201
▁이뤄지지	-7202
▁입원	-7203
▁윈	-7204
이스	-7205
▁의약품	-7206
TE	-7207
사랑	-7208
▁나오지	-7209
▁접속	-7210
▁순환	-7211
호의	-7212
▁면제	-7213
▁서울에서	-7214
있게	-7215
▁역임	-7216
▁이어진	-7217
하더라도	-7218
야구	-7219
▁규모를	-7220
1000	-7221
▁텔레	-7222
▁이성	-7223
▁이름이	-7224
▁얘기다	-7225
▁야구	-7226
▁땀	-7227
▁별세	-7228
▁억제	-7229
▁연세대	-7230
▁CCTV	-7231
▁데뷔	-7232
위원장을	-7233
받지	-7234
▁기분	-7235
클럽	-7236
▁빼앗	-7237
과장은	-7238
▁의혹에	-7239
▁입사	-7240
▁멸	-7241
▁포장	-7242
▁검사를	-7243
▁현재는	-7244
풀이	-7245
▁지적도	-7246
▁허리	-7247
▁손해배	-7248
▁스웨덴	-7249
▁술을	-7250
▁순천	-7251
▁마련한	-7252
▁일환으로	-7253
▁공작	-7254
▁장관의	-7255
▁중국에	-7256
▁좋아하는	-7257
▁딜	-7258
▁되기	-7259
▁시간에	-7260
▁보고서를	-7261
▁그날	-7262
▁고조	-7263
▁골목	-7264
▁뜻이다	-7265
▁제외하고	-7266
되도록	-7267
▁가질	-7268
▁않습니다	-7269
▁제품의	-7270
▁떨어지는	-7271
관련	-7272
▁이기	-7273
▁80%	-7274
▁선거에	-7275
▁병행	-7276
▁뭔가	-7277
▁실적이	-7278
점의	-7279
시각	-7280
▁최소화	-7281
▁천천	-7282
▁유전	-7283
▁경력	-7284
▁선포	-7285
▁연예	-7286
▁62	-7287
▁분석해	-7288
▁부딪	-7289
청사에서	-7290
▁윤리	-7291
▁발견된	-7292
▁진영	-7293
ig	-7294
▁해마다	-7295
▁게재	-7296
▁레드	-7297
▁의회	-7298
▁새해	-7299
감은	-7300
▁어떠한	-7301
▁시나	-7302
▁야간	-7303
▁오토	-7304
안정	-7305
▁마이크	-7306
▁과세	-7307
▁리그	-7308
▁종이	-7309
중심	-7310
▁끝내	-7311
▁의장은	-7312
▁패널	-7313
대교	-7314
▁가능성	-7315
▁증명	-7316
소방	-7317
▁중립	-7318
▁조금씩	-7319
▁과태	-7320
▁일찍	-7321
▁태국	-7322
▁안으로	-7323
체제	-7324
▁엔진	-7325
▁프랜차이즈	-7326
▁수사가	-7327
▁준비하고	-7328
업무	-7329
▁유일하게	-7330
▁실효	-7331
변화	-7332
▁판매를	-7333
▁나서고	-7334
정도	-7335
▁이게	-7336
▁사고로	-7337
▁기반을	-7338
▁기사를	-7339
▁이례	-7340
IC	-7341
재로	-7342
▁사람들에게	-7343
▁은퇴	-7344
▁담보	-7345
비서	-7346
터미널	-7347
▁남쪽	-7348
▁들여다	-7349
▁세이	-7350
▁요구하고	-7351
▁세계에서	-7352
▁완공	-7353
▁논쟁	-7354
▁크고	-7355
▁예비후	-7356
유를	-7357
▁마크	-7358
소한	-7359
▁내년부터	-7360
용으로	-7361
▁매출액	-7362
▁당국은	-7363
▁털어	-7364
▁뿌리	-7365
▁최순실	-7366
층이	-7367
▁장병	-7368
▁접어	-7369
▁대다	-7370
▁조세	-7371
▁내수	-7372
▁정례	-7373
▁차이	-7374
▁인기가	-7375
▁웅	-7376
마스	-7377
곳의	-7378
▁밝히고	-7379
▁측에	-7380
▁노조는	-7381
▁평화를	-7382
▁여겨	-7383
▁넓은	-7384
▁심한	-7385
인증	-7386
▁구제	-7387
▁않겠	-7388
▁위기를	-7389
조에	-7390
▁강화하는	-7391
▁다운	-7392
▁세운	-7393
▁부총리는	-7394
▁심지어	-7395
▁것인	-7396
▁관리를	-7397
▁제재를	-7398
마를	-7399
▁중장기	-7400
▁일에	-7401
▁출국	-7402
▁강화해	-7403
▁무소속	-7404
▁79	-7405
▁체감	-7406
견이	-7407
▁공인	-7408
회장	-7409
▁이념	-7410
▁갑질	-7411
조트	-7412
▁아무도	-7413
망이	-7414
▁해운대	-7415
▁본사	-7416
▁대대	-7417
▁영남	-7418
▁행사가	-7419
아트	-7420
▁적어도	-7421
▁갖는	-7422
▁수수료	-7423
▁확인한	-7424
▁증가하고	-7425
▁북쪽	-7426
▁멍	-7427
▁VR	-7428
▁간접	-7429
800	-7430
끼리	-7431
▁앓	-7432
달라는	-7433
▁주제	-7434
▁심사를	-7435
▁동북아	-7436
▁빠져나	-7437
▁천천히	-7438
▁예상되는	-7439
것도	-7440
대변	-7441
심은	-7442
▁했으나	-7443
▁재판을	-7444
▁미친	-7445
▁대상은	-7446
허가	-7447
▁4000	-7448
▁구체적	-7449
▁성사	-7450
▁잠정	-7451
느라	-7452
▁그러자	-7453
▁곳을	-7454
▁화면	-7455
▁독특	-7456
▁치열한	-7457
▁음주	-7458
▁즐거	-7459
GB	-7460
려야	-7461
▁정세	-7462
▁현상	-7463
로로	-7464
▁자가	-7465
전환	-7466
▁1500	-7467
▁질문을	-7468
사항을	-7469
금과	-7470
▁증시	-7471
부에서	-7472
편의	-7473
▁법조	-7474
▁저평가	-7475
학습	-7476
▁운전자	-7477
▁접목	-7478
▁4.	-7479
UV	-7480
ro	-7481
▁많고	-7482
▁민주평화	-7483
▁발표할	-7484
▁원자력	-7485
▁2021	-7486
▁교황	-7487
차량	-7488
▁반영해	-7489
▁원인이	-7490
▁무엇을	-7491
회관	-7492
속에	-7493
▁공격을	-7494
▁물량	-7495
▁민정	-7496
▁영입	-7497
▁l	-7498
▁집행유예	-7499
▁무대	-7500
토론	-7501
▁특혜	-7502
▁영향이	-7503
너지를	-7504
▁챔피언	-7505
유치	-7506
▁합리적인	-7507
▁앞장서	-7508
▁계속해서	-7509
36	-7510
했는지	-7511
▁89	-7512
출을	-7513
▁마감했다	-7514
▁가중	-7515
▁항공기	-7516
▁받기	-7517
▁비판을	-7518
▁인테	-7519
▁운송	-7520
▁일각에서는	-7521
▁선보일	-7522
▁암호화폐	-7523
▁시의	-7524
네트워크	-7525
▁스트레	-7526
▁IS	-7527
▁자신들의	-7528
▁청산	-7529
▁정상화	-7530
▁시선을	-7531
었다는	-7532
▁필요성을	-7533
▁기관은	-7534
▁조현	-7535
▁비리	-7536
▁지배구조	-7537
▁전인	-7538
▁내놓았다	-7539
▁어찌	-7540
▁판단을	-7541
▁한다면	-7542
까지도	-7543
해지는	-7544
▁황금	-7545
▁확실히	-7546
마크	-7547
▁87	-7548
▁유튜브	-7549
▁부장판	-7550
소시	-7551
▁합류	-7552
▁근육	-7553
▁지어	-7554
▁상승세를	-7555
스런	-7556
▁단행	-7557
이었습니다	-7558
▁대통령에	-7559
▁일종의	-7560
▁뒤늦게	-7561
▁61	-7562
▁으	-7563
▁이사장은	-7564
▁제품에	-7565
▁찾았다	-7566
▁믿고	-7567
▁무력	-7568
▁그걸	-7569
▁국가가	-7570
▁보았다	-7571
렸다고	-7572
우가	-7573
▁인근에	-7574
▁도망	-7575
▁g	-7576
▁조사하고	-7577
▁막아	-7578
▁장관과	-7579
▁국산	-7580
▁활약	-7581
▁기간을	-7582
▁삼아	-7583
▁고통을	-7584
▁구조조정	-7585
▁분당	-7586
▁IoT	-7587
호텔에서	-7588
▁제기한	-7589
▁연습	-7590
자회담	-7591
▁속해	-7592
▁서구	-7593
▁단순한	-7594
▁제기됐다	-7595
▁방법이	-7596
▁네덜	-7597
▁명백	-7598
▁강도	-7599
▁도달	-7600
▁지나치게	-7601
▁애니	-7602
전시	-7603
▁공원	-7604
▁세포	-7605
▁남성이	-7606
▁헬스	-7607
비에	-7608
치기	-7609
▁가벼	-7610
▁어쩔	-7611
래곤	-7612
장애인	-7613
과정에서	-7614
산업의	-7615
▁장난	-7616
▁나가는	-7617
수하고	-7618
▁바람직	-7619
▁그렇다고	-7620
▁응시	-7621
하우스	-7622
▁있을지	-7623
et	-7624
광역	-7625
▁수차례	-7626
체는	-7627
▁문화체육관광	-7628
▁남겨	-7629
▁신고를	-7630
▁기념촬영	-7631
▁국방부는	-7632
우기	-7633
▁지역경제	-7634
▁60%	-7635
조가	-7636
판이	-7637
▁지난주	-7638
▁자택	-7639
▁민주화	-7640
▁부정적인	-7641
▁포함됐다	-7642
▁못한다	-7643
▁지향	-7644
▁이어가고	-7645
▁확보한	-7646
▁신라	-7647
▁타임	-7648
▁저렴한	-7649
▁같습니다	-7650
▁듀	-7651
▁커다란	-7652
▁시작됐다	-7653
▁포괄	-7654
▁겪는	-7655
회계	-7656
생활을	-7657
▁턱	-7658
▁고객에게	-7659
▁승리를	-7660
▁어렵다는	-7661
소리	-7662
▁갈등이	-7663
▁편입	-7664
▁공을	-7665
▁이병	-7666
▁채무	-7667
방지	-7668
▁조율	-7669
냐고	-7670
▁첫날	-7671
▁업무협약을	-7672
▁영하	-7673
▁삼성물	-7674
▁근거로	-7675
았다는	-7676
▁점에	-7677
▁지사	-7678
카데	-7679
▁반박했다	-7680
▁원내대표가	-7681
▁돕는	-7682
▁신년	-7683
▁박상	-7684
대체	-7685
▁자제	-7686
공급	-7687
▁측의	-7688
▁보여주	-7689
▁지능	-7690
45	-7691
▁생리	-7692
▁협박	-7693
▁곳곳에	-7694
▁회동	-7695
▁옵	-7696
▁엇갈	-7697
▁대상을	-7698
▁혹시	-7699
레일	-7700
국에서	-7701
축산	-7702
▁개성공단	-7703
▁주시	-7704
▁인접	-7705
▁기아차	-7706
▁몫	-7707
▁일본은	-7708
▁기대를	-7709
▁공동대표	-7710
▁조종	-7711
▁홀로	-7712
언론	-7713
▁발표하고	-7714
▁개척	-7715
▁조각	-7716
▁의원들이	-7717
▁들어가는	-7718
▁오른쪽	-7719
▁심장	-7720
▁들어선	-7721
▁경호	-7722
▁수거	-7723
▁한글	-7724
건설은	-7725
▁냄새	-7726
▁개장	-7727
모임	-7728
▁정규	-7729
us	-7730
▁중복	-7731
▁쉬운	-7732
우스	-7733
▁모은	-7734
▁낚	-7735
▁고려할	-7736
▁얼굴이	-7737
대학원	-7738
▁훔	-7739
월말	-7740
▁중소벤처기업	-7741
▁최악의	-7742
▁이후에도	-7743
▁다음과	-7744
▁태평양	-7745
▁이후에	-7746
▁소수	-7747
OC	-7748
▁언론에	-7749
▁둘러싸	-7750
▁일제히	-7751
▁휴대폰	-7752
색을	-7753
▁내년도	-7754
▁180	-7755
▁모았다	-7756
▁간담회를	-7757
▁무인	-7758
▁특화	-7759
▁속으로	-7760
▁판매한다	-7761
▁이로써	-7762
본다	-7763
▁인기기사	-7764
▁정권의	-7765
동맹	-7766
▁김경수	-7767
정보통신	-7768
▁아닙	-7769
▁원의	-7770
에이	-7771
리에서	-7772
홈쇼핑	-7773
▁정부를	-7774
▁홈페이지에서	-7775
▁컸다	-7776
의약품	-7777
▁신축	-7778
▁부정적	-7779
▁기업과	-7780
▁선고했다	-7781
▁감지	-7782
▁가격에	-7783
▁비판이	-7784
▁기업들의	-7785
▁협력업체	-7786
버린	-7787
▁생기	-7788
▁최고경영	-7789
스카	-7790
▁지리	-7791
▁푸틴	-7792
▁발간	-7793
▁분산	-7794
▁마련할	-7795
언을	-7796
법의	-7797
▁전반에	-7798
▁죽은	-7799
▁훈련을	-7800
둘러	-7801
▁거절	-7802
▁시설을	-7803
▁일도	-7804
37	-7805
▁이외에도	-7806
▁보면서	-7807
▁이유다	-7808
소프트	-7809
▁총장은	-7810
▁업체가	-7811
이었고	-7812
▁재단	-7813
개편	-7814
성으로	-7815
▁박성	-7816
채널	-7817
오염	-7818
▁이야기가	-7819
▁침묵	-7820
▁국민을	-7821
로도	-7822
▁들어갈	-7823
사무소	-7824
반을	-7825
▁세금을	-7826
름을	-7827
▁계엄	-7828
▁즐기는	-7829
▁컨센서	-7830
▁우울	-7831
▁교육과	-7832
▁개정안을	-7833
구에서	-7834
회관에서	-7835
▁권한을	-7836
연구원은	-7837
프리	-7838
▁방안이	-7839
▁약속을	-7840
▁쳐다	-7841
▁인사청문	-7842
연의	-7843
▁깜짝	-7844
▁평가가	-7845
▁재해	-7846
거리를	-7847
▁배포	-7848
▁국민들의	-7849
국인	-7850
시안	-7851
▁잦	-7852
드에	-7853
▁냉장	-7854
▁하나인	-7855
▁다수의	-7856
▁이지	-7857
▁감소한	-7858
▁재개발	-7859
▁동남아	-7860
▁족	-7861
▁스페	-7862
노트	-7863
신은	-7864
▁손으로	-7865
▁기독교	-7866
▁공사를	-7867
▁윌	-7868
▁원천	-7869
▁들을	-7870
감에	-7871
▁배송	-7872
▁벌어진	-7873
문에서	-7874
▁노력이	-7875
군과	-7876
▁일주일	-7877
▁요구한	-7878
▁상황은	-7879
▁무리	-7880
▁느끼는	-7881
▁떠난	-7882
▁변화에	-7883
드라	-7884
▁로마	-7885
▁사람도	-7886
해달라고	-7887
▁보여준다	-7888
▁닥	-7889
▁생물	-7890
▁혁신을	-7891
▁그렇다	-7892
▁있었습니다	-7893
▁내릴	-7894
방의	-7895
비서관	-7896
ac	-7897
▁후배	-7898
▁짙	-7899
▁시대의	-7900
▁중에는	-7901
메이션	-7902
▁베스트	-7903
▁꼬집	-7904
▁이미지	-7905
▁해주	-7906
▁이사장	-7907
▁전교	-7908
ol	-7909
저히	-7910
체로	-7911
홀에서	-7912
▁급락	-7913
▁지은	-7914
▁드러냈다	-7915
▁위법	-7916
▁크로	-7917
▁말레이	-7918
▁모른	-7919
▁부활	-7920
미니	-7921
번호	-7922
▁섹션	-7923
▁물이	-7924
사태	-7925
▁좀더	-7926
▁진출을	-7927
셨다	-7928
외교	-7929
▁말하고	-7930
체계를	-7931
▁i	-7932
▁치솟	-7933
▁조지	-7934
산은	-7935
현실	-7936
▁대학교	-7937
▁합의했다	-7938
▁86	-7939
▁비핵화를	-7940
들고	-7941
▁거래소	-7942
▁배정	-7943
▁신동	-7944
공학	-7945
▁아웃	-7946
▁국정농	-7947
▁날씨	-7948
냐는	-7949
▁철수	-7950
▁클라우드	-7951
▁식당	-7952
▁고객을	-7953
▁추정된다	-7954
▁개최했다	-7955
▁국내에	-7956
▁구조를	-7957
공무원	-7958
▁끊임없이	-7959
▁국민들이	-7960
▁남한	-7961
▁다문화	-7962
▁직권	-7963
▁올바른	-7964
▁벌여	-7965
▁한반도의	-7966
풍이	-7967
조의	-7968
▁나서는	-7969
▁가능할	-7970
▁중국에서	-7971
▁쓰레기	-7972
어의	-7973
▁포함돼	-7974
스피	-7975
▁SUV	-7976
▁사람에게	-7977
▁유로	-7978
▁라이프	-7979
▁초고	-7980
▁핫	-7981
▁찾아가	-7982
▁동영상	-7983
▁않았다는	-7984
▁수습	-7985
▁자유무역	-7986
하겠다며	-7987
▁대결	-7988
▁고대	-7989
▁영세	-7990
▁활동에	-7991
▁다스	-7992
▁지분을	-7993
▁소장	-7994
▁어디서	-7995
▁드는	-7996
양이	-7997
▁낯	-7998
▁잡은	-7999
▁블랙리스트	-8000
▁언급한	-8001
▁여부에	-8002
▁유관	-8003
▁공중	-8004
▁곳곳에서	-8005
▁유효	-8006
팀의	-8007
▁도출	-8008
▁진화	-8009
▁석탄	-8010
▁살려	-8011
▁나라를	-8012
▁이은	-8013
▁상처를	-8014
본부장은	-8015
▁반등	-8016
▁김동연	-8017
▁국회가	-8018
▁감안하면	-8019
▁교통사고	-8020
▁앨범	-8021
▁푸른	-8022
▁화가	-8023
사업은	-8024
▁민중	-8025
▁미안	-8026
ec	-8027
▁he	-8028
▁기다리고	-8029
NG	-8030
부총	-8031
▁였다	-8032
연수	-8033
▁클럽	-8034
▁가능해	-8035
▁들어오	-8036
법과	-8037
▁제어	-8038
▁지수	-8039
▁헌재	-8040
▁상영	-8041
▁네덜란드	-8042
신도시	-8043
▁해결할	-8044
▁투입해	-8045
드와	-8046
▁분할	-8047
▁현역	-8048
▁평범한	-8049
▁적응	-8050
이니	-8051
▁범행을	-8052
▁잡았다	-8053
▁흔히	-8054
과학기술	-8055
▁와이	-8056
▁자체를	-8057
▁추경	-8058
▁입점	-8059
▁구성됐다	-8060
▁맛을	-8061
▁수강	-8062
▁조리	-8063
▁의류	-8064
▁교육부는	-8065
패를	-8066
▁간에	-8067
▁상봉	-8068
▁전체의	-8069
▁양극	-8070
▁군의	-8071
키스탄	-8072
타를	-8073
▁대입	-8074
터테인	-8075
▁배후	-8076
▁부천	-8077
크는	-8078
결제	-8079
▁걸린	-8080
▁학교에	-8081
▁적폐청	-8082
▁탄도미사일	-8083
▁노트	-8084
▁듯이	-8085
▁아트	-8086
▁190	-8087
▁계절	-8088
▁도모	-8089
▁경쟁이	-8090
▁지원이	-8091
▁거두	-8092
영은	-8093
▁환자가	-8094
▁시작한다	-8095
법원	-8096
▁규정하고	-8097
▁가면	-8098
▁올라가	-8099
▁박물	-8100
들에게는	-8101
▁바라는	-8102
▁하나는	-8103
▁비용이	-8104
▁판매하는	-8105
람회	-8106
라가	-8107
▁야생	-8108
▁차량이	-8109
▁함유	-8110
▁더블	-8111
▁착공	-8112
▁자원봉사	-8113
▁사건과	-8114
▁희망을	-8115
▁출간	-8116
▁아시아나	-8117
▁기상청은	-8118
▁위생	-8119
▁유용	-8120
▁시인	-8121
세트	-8122
▁지니	-8123
▁개최한다	-8124
▁여행을	-8125
▁도입을	-8126
▁정유	-8127
통일	-8128
▁현실을	-8129
▁상한	-8130
▁체크	-8131
▁안타까	-8132
▁당뇨	-8133
자금을	-8134
▁김수	-8135
▁실장은	-8136
▁130	-8137
▁독도	-8138
▁몇몇	-8139
▁정원	-8140
▁플래	-8141
▁누릴	-8142
▁나라의	-8143
▁AF	-8144
타민	-8145
▁1999	-8146
▁규정을	-8147
▁신혼	-8148
▁영광	-8149
▁능력이	-8150
▁바뀐	-8151
▁외면	-8152
▁났다	-8153
연합회	-8154
▁가려	-8155
▁병원으로	-8156
AE	-8157
▁성공했다	-8158
▁찾고	-8159
▁장악	-8160
▁합의가	-8161
는데도	-8162
뉴얼	-8163
▁방문객	-8164
▁이혼	-8165
▁제기했다	-8166
▁집중적으로	-8167
▁부합	-8168
요한	-8169
▁불과하다	-8170
▁관계자들이	-8171
▁줄이	-8172
▁업계에	-8173
조는	-8174
▁영동	-8175
▁98	-8176
▁마스크	-8177
▁중이라고	-8178
▁관세를	-8179
▁실시한다	-8180
반기에	-8181
산에	-8182
지역의	-8183
▁그나마	-8184
▁무조건	-8185
▁꼼꼼	-8186
▁아랍	-8187
▁때문입니다	-8188
▁휠	-8189
▁화려한	-8190
기소	-8191
▁진실	-8192
으니까	-8193
이와	-8194
청의	-8195
일인	-8196
▁나에게	-8197
▁원칙을	-8198
▁교수의	-8199
▁개시	-8200
▁경제협력	-8201
▁무렵	-8202
▁기록하고	-8203
님을	-8204
조한	-8205
▁드라이	-8206
▁뷰티	-8207
▁주민들은	-8208
▁1998	-8209
정지	-8210
▁발견됐다	-8211
▁상승한	-8212
▁면적	-8213
고에	-8214
▁가끔	-8215
▁때문이라고	-8216
▁개봉	-8217
▁재능	-8218
▁불공정	-8219
▁오를	-8220
▁부드러	-8221
▁늘어나는	-8222
▁말았다	-8223
▁이윤	-8224
900	-8225
▁스위스	-8226
▁성공을	-8227
ve	-8228
▁규명	-8229
▁청와대에서	-8230
시스템을	-8231
전기	-8232
▁무장	-8233
▁무서	-8234
▁산불	-8235
▁납치	-8236
▁흡수	-8237
▁했을	-8238
▁광복	-8239
▁싸움	-8240
▁오늘날	-8241
▁동성	-8242
▁설명을	-8243
▁마약	-8244
호기	-8245
▁그러면	-8246
▁기능이	-8247
400	-8248
▁씽	-8249
▁감상	-8250
▁사회에	-8251
▁고려하면	-8252
▁일고	-8253
▁경제가	-8254
▁급격히	-8255
▁중반	-8256
▁상시	-8257
▁동종목에	-8258
▁오늘은	-8259
▁수혜	-8260
금속	-8261
▁예전	-8262
▁이해할	-8263
▁선정해	-8264
▁세상에	-8265
▁중재	-8266
▁느낌을	-8267
▁연동	-8268
▁도중	-8269
▁우리나라의	-8270
▁연수	-8271
▁수천	-8272
▁110	-8273
▁가능성에	-8274
▁권리를	-8275
▁핑	-8276
▁나름	-8277
▁불만을	-8278
▁유전자	-8279
▁강화할	-8280
▁공존	-8281
▁크지	-8282
▁났	-8283
▁매출을	-8284
▁세웠다	-8285
선과	-8286
금의	-8287
▁스키	-8288
▁요인이	-8289
▁체결했다	-8290
▁가난	-8291
▁잃은	-8292
▁산정	-8293
▁말레이시아	-8294
▁보행	-8295
학자	-8296
협회는	-8297
▁어두	-8298
그룹이	-8299
▁총수	-8300
두를	-8301
▁유승민	-8302
면세	-8303
음에	-8304
▁나누고	-8305
으로도	-8306
▁크루	-8307
▁도움	-8308
▁저작	-8309
▁궤	-8310
계와	-8311
▁부친	-8312
▁금감원	-8313
▁선거에서	-8314
동강	-8315
너스	-8316
▁줄이고	-8317
▁보내는	-8318
▁생각한다고	-8319
▁올리는	-8320
▁임종	-8321
▁청원	-8322
열을	-8323
▁이용자	-8324
부품	-8325
▁둥	-8326
어지고	-8327
연이	-8328
퍼스	-8329
▁만났	-8330
▁잠실	-8331
형의	-8332
▁기념해	-8333
▁첫째	-8334
▁90%	-8335
▁법원은	-8336
▁강서	-8337
),	-8338
▁해양수산	-8339
처벌	-8340
▁도약	-8341
▁전격	-8342
▁김광	-8343
대회에서	-8344
▁설명하고	-8345
나이	-8346
▁협력해	-8347
▁유사한	-8348
▁박주	-8349
▁연봉	-8350
지역에	-8351
▁맡았다	-8352
▁투자자	-8353
▁반성	-8354
▁내륙	-8355
▁유지하는	-8356
정부의	-8357
▁환자의	-8358
▁취약계층	-8359
▁피아	-8360
담보	-8361
부대	-8362
▁독점	-8363
▁원장	-8364
▁발을	-8365
▁송영	-8366
학회	-8367
▁가족이	-8368
▁검거	-8369
▁시민사회	-8370
레이션	-8371
▁성공한	-8372
프레	-8373
▁이렇	-8374
▁씻	-8375
▁패러	-8376
▁사회를	-8377
사업의	-8378
▁규탄	-8379
▁규모다	-8380
▁국가대표	-8381
▁모범	-8382
▁맥주	-8383
▁눈물을	-8384
▁자칫	-8385
▁이메	-8386
▁위에서	-8387
▁기간이	-8388
글로	-8389
▁한참	-8390
▁고문	-8391
▁갚	-8392
▁유예	-8393
▁LH	-8394
하기에	-8395
▁주가는	-8396
▁전라	-8397
▁파워	-8398
▁관행	-8399
▁기업인	-8400
▁국토부	-8401
▁삼성전자가	-8402
▁신형	-8403
▁LED	-8404
▁관할	-8405
▁도서관	-8406
▁참모	-8407
▁진지	-8408
▁정도다	-8409
▁전국의	-8410
▁살충	-8411
▁96	-8412
된다면	-8413
순위	-8414
▁대부분이	-8415
▁아끼	-8416
▁갈아	-8417
공사가	-8418
▁주문했다	-8419
데다	-8420
▁동구	-8421
▁가능하며	-8422
산과	-8423
▁파악하고	-8424
▁한쪽	-8425
▁자진	-8426
▁선보이는	-8427
PG	-8428
▁위주로	-8429
▁손해배상	-8430
▁세계적으로	-8431
▁커질	-8432
▁줄일	-8433
▁입장에서	-8434
▁일으키	-8435
▁정한	-8436
▁성분	-8437
▁경기가	-8438
▁의문	-8439
▁대형마트	-8440
▁정부에서	-8441
▁할지	-8442
▁흙	-8443
▁위하여	-8444
나게	-8445
▁회장을	-8446
▁케이블	-8447
▁인용해	-8448
▁개관	-8449
회의에	-8450
막을	-8451
▁호소했다	-8452
▁조건을	-8453
▁가깝다	-8454
▁추정되는	-8455
아는	-8456
▁15%	-8457
▁스튜디오	-8458
▁금메달	-8459
▁합쳐	-8460
▁엑	-8461
▁주목을	-8462
▁상처	-8463
▁거다	-8464
센터가	-8465
▁어렵다고	-8466
▁애널리스트	-8467
▁날이	-8468
▁내리는	-8469
▁규칙	-8470
▁일반적으로	-8471
▁마음으로	-8472
설이	-8473
▁후보자는	-8474
▁경쟁을	-8475
▁제목의	-8476
교섭	-8477
▁패턴	-8478
▁사랑의	-8479
▁비트코인	-8480
본부장	-8481
▁97	-8482
▁기대감이	-8483
38	-8484
▁법제	-8485
▁만났다	-8486
▁분들이	-8487
▁갖게	-8488
▁합의한	-8489
길에	-8490
익을	-8491
▁발전에	-8492
▁타당	-8493
▁오찬	-8494
▁대중교통	-8495
▁생길	-8496
디스플레이	-8497
▁동행	-8498
시설이	-8499
▁경제의	-8500
로서는	-8501
▁충격을	-8502
▁사로	-8503
▁주장하고	-8504
▁지내	-8505
▁굳이	-8506
▁페이스북에	-8507
▁태극	-8508
었으나	-8509
▁받았다고	-8510
▁민주당이	-8511
▁조치가	-8512
▁맺고	-8513
▁공개된	-8514
▁그녀가	-8515
▁서버	-8516
▁유연	-8517
▁결심	-8518
바이트	-8519
id	-8520
▁이재용	-8521
▁선전	-8522
▁신문은	-8523
자로서	-8524
▁한계가	-8525
▁외국인이	-8526
▁개정안	-8527
▁지적이다	-8528
오를	-8529
▁남양	-8530
▁광주시	-8531
비율	-8532
▁보여준	-8533
▁과장	-8534
▁매월	-8535
▁켜	-8536
▁작전	-8537
▁앞선	-8538
▁학생이	-8539
▁의원들은	-8540
▁기업이다	-8541
FA	-8542
작업을	-8543
▁갱	-8544
낙연	-8545
▁유포	-8546
ot	-8547
▁바닷	-8548
▁자신에게	-8549
▁SBS	-8550
▁참가한	-8551
나라는	-8552
▁느끼고	-8553
▁못하게	-8554
여대	-8555
의로	-8556
▁해킹	-8557
▁내야	-8558
라인을	-8559
▁수를	-8560
▁태어난	-8561
만으로도	-8562
박물관	-8563
▁직면	-8564
▁중대한	-8565
▁줄이는	-8566
▁이룬	-8567
▁조사가	-8568
공화	-8569
위원장과	-8570
▁해명했다	-8571
▁속도가	-8572
▁전용면적	-8573
▁중국인	-8574
▁심화	-8575
▁사업으로	-8576
▁에어컨	-8577
▁패배	-8578
▁사외	-8579
▁현대중공업	-8580
▁보도에	-8581
▁얻었다	-8582
▁공고	-8583
▁눈앞	-8584
▁겉	-8585
▁모자	-8586
▁대검	-8587
▁모습은	-8588
취를	-8589
▁설치해	-8590
▁이산가족	-8591
▁매출은	-8592
am	-8593
▁회장과	-8594
▁늘어났다	-8595
벤션	-8596
▁일치	-8597
트와	-8598
▁임용	-8599
▁과징	-8600
파의	-8601
▁독특한	-8602
기관이	-8603
▁기운	-8604
▁무한	-8605
▁스타일	-8606
▁베를	-8607
게는	-8608
▁기존에	-8609
▁층	-8610
▁탈락	-8611
▁신용카드	-8612
▁지원해	-8613
▁거리가	-8614
▁중점	-8615
▁선착	-8616
▁단위	-8617
▁넘어서	-8618
▁각별	-8619
▁이수	-8620
예방	-8621
만명이	-8622
▁멘토	-8623
기온은	-8624
▁출신의	-8625
ER	-8626
▁후보와	-8627
▁불교	-8628
▁발표를	-8629
▁시간은	-8630
▁전국에서	-8631
로지	-8632
아의	-8633
▁피해자가	-8634
▁나란히	-8635
웠던	-8636
▁관점에서	-8637
에서부터	-8638
래도	-8639
▁로드맵	-8640
셔츠	-8641
▁그와	-8642
▁제네	-8643
▁식약	-8644
▁감각	-8645
▁닦	-8646
▁갑작	-8647
▁사항은	-8648
비전	-8649
▁견인	-8650
▁어렵게	-8651
▁높고	-8652
▁정책의	-8653
▁진행해	-8654
▁농산물	-8655
▁미흡	-8656
▁억울	-8657
▁자국	-8658
▁실망	-8659
▁KTX	-8660
형으로	-8661
겁게	-8662
▁입국	-8663
▁대응을	-8664
▁남긴	-8665
▁안산	-8666
방에서	-8667
▁포트	-8668
▁유지했다	-8669
▁범위를	-8670
▁혁	-8671
▁매장을	-8672
▁공정한	-8673
행동	-8674
협약	-8675
년으로	-8676
▁국외	-8677
금지	-8678
▁잠수	-8679
러리	-8680
▁만나는	-8681
▁소비자들의	-8682
▁견제	-8683
▁음료	-8684
됐을	-8685
▁출신인	-8686
PC	-8687
▁선언했다	-8688
▁아세안	-8689
▁이상한	-8690
계약을	-8691
▁탈북	-8692
▁요소	-8693
▁나타내는	-8694
▁독서	-8695
해가	-8696
▁지역으로	-8697
았을	-8698
▁밸	-8699
▁안동	-8700
예요	-8701
▁눈으로	-8702
▁5.	-8703
▁투자의견은	-8704
▁배상	-8705
▁장성	-8706
▁무엇이	-8707
▁사태가	-8708
▁국토부는	-8709
훈련을	-8710
미애	-8711
콘텐츠	-8712
되어야	-8713
▁확보를	-8714
▁대출을	-8715
▁이낙연	-8716
▁집으로	-8717
▁숭	-8718
▁유지할	-8719
▁김명	-8720
▁바꾸는	-8721
푸드	-8722
인식	-8723
▁강동	-8724
세와	-8725
조원을	-8726
▁건국	-8727
▁기념촬영을	-8728
▁붙어	-8729
▁교원	-8730
▁의지가	-8731
▁무대에	-8732
▁사랑하는	-8733
령이	-8734
▁수치다	-8735
▁불참	-8736
서에서	-8737
청에서	-8738
▁미뤄	-8739
▁발생해	-8740
▁선거를	-8741
농협	-8742
▁담았다	-8743
39	-8744
▁논의했다	-8745
▁워낙	-8746
▁공조	-8747
▁면세점	-8748
▁부회장이	-8749
목이	-8750
▁가만	-8751
▁탈당	-8752
사도	-8753
▁스피커	-8754
▁펼치고	-8755
▁염두에	-8756
▁생산하는	-8757
하되	-8758
▁1997	-8759
▁데는	-8760
▁또다른	-8761
▁증상이	-8762
▁실시하고	-8763
나와	-8764
▁아름다	-8765
하기를	-8766
▁인식을	-8767
었기	-8768
▁할아버	-8769
▁개발해	-8770
▁전술	-8771
▁성매매	-8772
▁그러니까	-8773
▁복잡한	-8774
겠지	-8775
▁한창	-8776
▁위원장을	-8777
▁클린	-8778
ent	-8779
▁사태를	-8780
관계가	-8781
농업	-8782
정보를	-8783
행위를	-8784
▁그러한	-8785
들인	-8786
▁권한대행	-8787
물과	-8788
▁뭘	-8789
▁책임이	-8790
▁94	-8791
▁양자	-8792
머스	-8793
▁흥미	-8794
▁근대	-8795
▁구직	-8796
신용	-8797
시간이	-8798
▁시가총액	-8799
▁유망	-8800
▁투어	-8801
되거나	-8802
▁거리를	-8803
▁전과	-8804
▁인력을	-8805
▁영화를	-8806
▁71	-8807
▁실리	-8808
사용	-8809
▁들어갔	-8810
라리	-8811
600	-8812
▁당황	-8813
제일	-8814
▁이대	-8815
운전	-8816
재단은	-8817
▁투자가	-8818
▁김승	-8819
▁깎	-8820
▁올해부터	-8821
34	-8822
▁기쁘	-8823
▁것보다	-8824
▁하락한	-8825
미한	-8826
▁오스트	-8827
▁상세	-8828
▁모양새	-8829
▁아닙니다	-8830
▁번영	-8831
▁죄송	-8832
▁특유의	-8833
▁비공개	-8834
시다	-8835
▁일간	-8836
▁민선	-8837
▁재차	-8838
▁일본이	-8839
청사	-8840
▁지혜	-8841
▁생생	-8842
매를	-8843
▁작가의	-8844
▁프로젝트를	-8845
사한	-8846
▁다채	-8847
▁해석이	-8848
▁서면	-8849
▁숨을	-8850
▁비서실	-8851
▁콘셉	-8852
▁진상규	-8853
▁회사를	-8854
▁보강	-8855
▁요구에	-8856
▁뻗	-8857
▁이듬	-8858
▁제보	-8859
▁중개	-8860
▁연일	-8861
▁데려	-8862
생이	-8863
▁채워	-8864
▁감면	-8865
▁사무실	-8866
다리	-8867
SD	-8868
▁제품이	-8869
▁속도로	-8870
로에	-8871
▁씨와	-8872
▁책은	-8873
재정	-8874
▁PD	-8875
태평양	-8876
▁와인	-8877
▁통영	-8878
디션	-8879
▁방법은	-8880
▁기금	-8881
▁결정에	-8882
▁보고서는	-8883
▁잇는	-8884
▁강조한	-8885
해져	-8886
대우	-8887
▁막대한	-8888
▁찰	-8889
수지	-8890
▁벤처기업	-8891
▁연계해	-8892
▁오르는	-8893
▁협상이	-8894
▁했다며	-8895
▁생각에	-8896
▁CNN	-8897
▁심판	-8898
▁누리꾼	-8899
명도	-8900
▁빵	-8901
▁세종시	-8902
▁상속	-8903
▁경향	-8904
분부터	-8905
▁교도	-8906
▁때보다	-8907
▁선생님	-8908
▁직장인	-8909
▁짝	-8910
▁솔직	-8911
NA	-8912
점이다	-8913
▁꾸려	-8914
천억원	-8915
▁위해선	-8916
있던	-8917
▁기증	-8918
▁정부서울	-8919
▁시민이	-8920
스럽다	-8921
▁작가는	-8922
트에	-8923
▁달러를	-8924
▁돼야	-8925
▁발부	-8926
▁번째로	-8927
▁다룬	-8928
▁반영한	-8929
유통	-8930
▁82	-8931
▁영국의	-8932
권도	-8933
▁제기된	-8934
았는데	-8935
▁선택할	-8936
▁감독이	-8937
▁이듬해	-8938
▁올해도	-8939
▁범위	-8940
에서만	-8941
▁전임	-8942
▁제공해	-8943
▁아무것도	-8944
▁마땅	-8945
담을	-8946
▁성범죄	-8947
▁종류	-8948
▁책정	-8949
골을	-8950
▁신재생	-8951
▁법원이	-8952
진단	-8953
▁따져	-8954
▁금강산	-8955
▁나간	-8956
▁집어	-8957
방해	-8958
호에	-8959
▁기준이	-8960
▁뛰어넘	-8961
▁신조	-8962
투쟁	-8963
▁만성	-8964
▁구축을	-8965
▁위성	-8966
▁엑스	-8967
▁상하이	-8968
▁신속하게	-8969
▁모래	-8970
▁하거나	-8971
▁기록하며	-8972
▁전체를	-8973
▁비타민	-8974
▁알파	-8975
▁낫	-8976
▁판매가	-8977
▁제품으로	-8978
▁마이크로	-8979
SC	-8980
▁폭으로	-8981
진에	-8982
▁다름	-8983
▁거세	-8984
▁특성을	-8985
▁찾지	-8986
▁이뤄지는	-8987
▁있었다는	-8988
▁뭉	-8989
으려	-8990
▁진술을	-8991
▁국민에게	-8992
도서관	-8993
▁순이익	-8994
▁올리고	-8995
브랜드	-8996
석은	-8997
▁생각합니다	-8998
우러	-8999
▁강원랜드	-9000
▁안고	-9001
▁한국지	-9002
▁않겠다는	-9003
치면서	-9004
▁끓	-9005
형은	-9006
▁되찾	-9007
공제	-9008
▁추미애	-9009
거든	-9010
▁성장할	-9011
면의	-9012
▁택배	-9013
리포니아	-9014
▁블로그	-9015
▁릴	-9016
▁건강을	-9017
▁운영에	-9018
im	-9019
▁놀이	-9020
종이	-9021
▁조용히	-9022
▁유행	-9023
▁회수	-9024
▁포르	-9025
▁조회	-9026
▁환경부	-9027
▁답변을	-9028
▁내걸	-9029
▁캄	-9030
센터에	-9031
▁전신	-9032
인사	-9033
▁꼽히는	-9034
▁확신	-9035
▁과정이	-9036
옵니다	-9037
과도	-9038
톨릭	-9039
역으로	-9040
▁본질	-9041
▁든다	-9042
▁산학	-9043
▁연료	-9044
▁동원해	-9045
포먼	-9046
▁도대체	-9047
년여	-9048
▁그것도	-9049
▁담당하는	-9050
▁감독의	-9051
▁성공적인	-9052
▁이내에	-9053
▁OLED	-9054
▁시기를	-9055
▁브랜드를	-9056
▁고수	-9057
▁조언했다	-9058
이노	-9059
렉스	-9060
▁지불	-9061
쉽게	-9062
▁이끌고	-9063
▁출연해	-9064
▁중요하다고	-9065
기관에	-9066
▁퇴근	-9067
▁웃음	-9068
의가	-9069
▁지방선거에서	-9070
▁임직	-9071
버트	-9072
▁도박	-9073
▁부착	-9074
▁여는	-9075
▁몰래	-9076
▁발주	-9077
자다	-9078
▁태어나	-9079
▁영향력을	-9080
▁깃	-9081
▁나타나는	-9082
▁사물인터넷	-9083
▁걸친	-9084
▁준수	-9085
▁개선에	-9086
▁탈퇴	-9087
라스틱	-9088
▁논문	-9089
▁박종	-9090
▁보아	-9091
랍니다	-9092
▁주간	-9093
▁관내	-9094
▁서울과	-9095
ay	-9096
▁일행	-9097
▁손상	-9098
▁출시한	-9099
주식	-9100
▁이재명	-9101
▁이뤄진다	-9102
▁가계부채	-9103
▁터뜨	-9104
편이	-9105
개정	-9106
▁예보	-9107
▁요인	-9108
▁본격화	-9109
▁이통	-9110
어질	-9111
▁공동체	-9112
▁공직선거	-9113
▁텍	-9114
▁경고했다	-9115
▁대표적	-9116
▁일으킨	-9117
풍을	-9118
장관은	-9119
▁사회가	-9120
▁영업이익은	-9121
▁부시	-9122
▁전방	-9123
▁조속히	-9124
▁그랜드	-9125
▁다르게	-9126
규제	-9127
등을	-9128
▁표정을	-9129
니는	-9130
▁증가할	-9131
▁정동	-9132
플루	-9133
▁쇄	-9134
출산	-9135
▁생태계	-9136
▁타이어	-9137
▁초청해	-9138
▁늘어나고	-9139
심과	-9140
역과	-9141
대책을	-9142
▁낡	-9143
단체장	-9144
셔널	-9145
▁아픔	-9146
▁놓은	-9147
▁에는	-9148
▁선관	-9149
▁떡	-9150
▁닮	-9151
▁국경	-9152
▁스탠	-9153
지않	-9154
어졌다	-9155
어지는	-9156
▁전체적으로	-9157
▁산업의	-9158
▁아이스	-9159
사례	-9160
▁무척	-9161
로직	-9162
▁사건으로	-9163
디자인	-9164
▁안보리	-9165
▁다니는	-9166
▁신속한	-9167
▁혈액	-9168
▁총리의	-9169
▁반응이	-9170
▁아이들의	-9171
▁농림축산	-9172
▁듣는	-9173
▁신약	-9174
▁물에	-9175
▁몬	-9176
▁진실을	-9177
▁앞당	-9178
▁방통	-9179
급식	-9180
▁끌었다	-9181
▁들어와	-9182
부부	-9183
▁바라보는	-9184
▁기자회견에서	-9185
▁리콜	-9186
▁그다	-9187
▁동양	-9188
▁취지로	-9189
▁근절	-9190
ow	-9191
▁모인	-9192
▁안양	-9193
▁놓여	-9194
▁우리에게	-9195
▁무사	-9196
까지만	-9197
▁못했던	-9198
▁대북제재	-9199
▁확대하는	-9200
▁보여주고	-9201
▁원고	-9202
▁본인이	-9203
▁출시했다	-9204
▁AR	-9205
▁삽	-9206
페라	-9207
▁법을	-9208
▁비전	-9209
▁쌓아	-9210
▁처분을	-9211
▁그들	-9212
▁많지	-9213
▁1970	-9214
▁걸고	-9215
▁체류	-9216
▁정수	-9217
▁치킨	-9218
트롤	-9219
▁가볍게	-9220
▁상태가	-9221
▁83	-9222
▁기반의	-9223
편을	-9224
700	-9225
만원이	-9226
▁지원에	-9227
▁신생아	-9228
▁경기에서	-9229
기만	-9230
▁자동으로	-9231
색이	-9232
이한	-9233
지니어	-9234
▁입시	-9235
▁세계의	-9236
▁적용한	-9237
▁관련해서는	-9238
▁엿	-9239
드린	-9240
▁안타깝	-9241
검토	-9242
▁원주	-9243
민족	-9244
SA	-9245
▁읍	-9246
표가	-9247
루미	-9248
석에	-9249
▁한국전	-9250
▁미얀	-9251
왔던	-9252
▁시행령	-9253
▁우호	-9254
▁확인해	-9255
국제공항	-9256
▁실정	-9257
▁말씀을	-9258
▁대가	-9259
▁유치원	-9260
▁계획이	-9261
▁캘리포니아	-9262
▁거래가	-9263
▁아리	-9264
▁캠페인을	-9265
▁기분이	-9266
작가	-9267
▁훌륭한	-9268
▁소비자가	-9269
▁식물	-9270
제도를	-9271
▁뛰어나	-9272
▁이송	-9273
▁위험한	-9274
▁아쉬움을	-9275
북도	-9276
▁되길	-9277
▁고시	-9278
▁투자자의	-9279
▁증여	-9280
▁업체인	-9281
▁어려움	-9282
노동조합	-9283
럴림픽	-9284
▁베네	-9285
월과	-9286
▁진주	-9287
▁모터	-9288
▁받으며	-9289
▁표명	-9290
▁올해로	-9291
▁팝	-9292
▁승인을	-9293
▁이집	-9294
▁되면서	-9295
▁롯데마트	-9296
▁우리를	-9297
▁디자이너	-9298
▁꿈꾸	-9299
▁브리핑에서	-9300
렬한	-9301
▁두드러	-9302
위원회와	-9303
영상	-9304
▁연준	-9305
▁실용	-9306
▁한동안	-9307
▁다리	-9308
▁북구	-9309
▁교회	-9310
▁영토	-9311
▁간담회	-9312
면에서	-9313
트라	-9314
▁통행	-9315
▁비례대표	-9316
▁비싼	-9317
▁저도	-9318
▁콘서트	-9319
▁추구하는	-9320
▁기사입니다	-9321
▁6000	-9322
업계에	-9323
▁국가주	-9324
▁사람과	-9325
▁깨달	-9326
▁겨냥한	-9327
아리	-9328
바람	-9329
▁수술을	-9330
보안	-9331
▁부총리	-9332
백을	-9333
계열	-9334
▁사업자	-9335
▁수준이	-9336
▁방안에	-9337
▁잊지	-9338
매김	-9339
느냐고	-9340
▁이뤄지고	-9341
▁의정부	-9342
▁정치인	-9343
▁최근에	-9344
▁내리고	-9345
▁줄기	-9346
▁불리	-9347
▁국무총리	-9348
▁가라	-9349
▁색깔	-9350
▁스코	-9351
▁빛을	-9352
▁운영할	-9353
두로	-9354
▁수시로	-9355
▁해결하기	-9356
▁탈출	-9357
결정	-9358
▁뽑아	-9359
되지만	-9360
▁시세	-9361
▁바깥	-9362
▁네가	-9363
▁고려대	-9364
▁돌아오	-9365
▁패키지	-9366
하에	-9367
▁확립	-9368
▁랭	-9369
▁세계적	-9370
▁아까	-9371
▁좋을	-9372
▁저지른	-9373
▁근본적인	-9374
▁금융당	-9375
▁방식이다	-9376
환자	-9377
▁합작	-9378
▁고기	-9379
▁마련하고	-9380
▁치유	-9381
▁삼성전자의	-9382
▁말라	-9383
▁논란에	-9384
▁들어온	-9385
▁이라면서	-9386
▁고객들이	-9387
▁신한금융	-9388
▁열려	-9389
층에서	-9390
▁한양	-9391
▁어려움이	-9392
▁주류	-9393
민이	-9394
▁대상에	-9395
▁내각	-9396
마의	-9397
▁화보	-9398
▁지방분	-9399
▁표정으로	-9400
▁틸	-9401
▁자리매김	-9402
▁맞고	-9403
▁음악을	-9404
▁대가로	-9405
▁수송	-9406
▁발인	-9407
차적으로	-9408
▁방송통신	-9409
▁아래로	-9410
나의	-9411
▁소집	-9412
만원에서	-9413
행사를	-9414
라디	-9415
▁알리고	-9416
▁세계를	-9417
▁아들이	-9418
▁종목에	-9419
▁국제사회의	-9420
▁부당한	-9421
▁구매할	-9422
근무	-9423
▁관심과	-9424
▁아마도	-9425
▁조사할	-9426
▁자유한국당은	-9427
▁엘지	-9428
원까지	-9429
감사	-9430
▁퍼포먼	-9431
수급	-9432
살이	-9433
▁펼쳐진다	-9434
▁차이를	-9435
▁시위를	-9436
▁물품	-9437
▁송도	-9438
현대	-9439
르의	-9440
파를	-9441
식에는	-9442
우며	-9443
▁그들을	-9444
▁열리고	-9445
▁다행히	-9446
▁민정수석	-9447
희정	-9448
▁김영철	-9449
마는	-9450
▁위원장과	-9451
▁걸릴	-9452
▁전국에	-9453
▁의미한다	-9454
초등학교	-9455
집니다	-9456
▁베를린	-9457
▁안전성	-9458
▁험	-9459
▁처벌을	-9460
▁주먹	-9461
정신	-9462
▁아사	-9463
에게서	-9464
했었다	-9465
▁작용할	-9466
▁기도	-9467
▁호텔에서	-9468
중이	-9469
▁기쁨	-9470
▁웰	-9471
▁보냈	-9472
▁적합한	-9473
▁속초	-9474
조치를	-9475
▁불이익	-9476
▁어쨌	-9477
소재	-9478
▁상관없이	-9479
재해	-9480
▁타격을	-9481
▁여성은	-9482
▁쓰지	-9483
까요	-9484
디언	-9485
▁지위를	-9486
▁협조를	-9487
▁스크린	-9488
판에서	-9489
▁감안해	-9490
▁아나	-9491
▁모르겠다	-9492
▁지역주민	-9493
차의	-9494
▁움직임을	-9495
박스	-9496
바지	-9497
▁전송	-9498
▁재활용	-9499
▁테크	-9500
▁업종에	-9501
▁땅을	-9502
▁유리한	-9503
원식	-9504
제품을	-9505
▁촉구하는	-9506
생태	-9507
▁조성을	-9508
▁꼬집었다	-9509
▁작업이	-9510
서야	-9511
교육감	-9512
▁직접적인	-9513
남도	-9514
▁당신이	-9515
▁위대한	-9516
▁기술과	-9517
▁인증을	-9518
대변인은	-9519
▁플랫폼을	-9520
▁불편을	-9521
▁과학기술정보통신	-9522
▁산책	-9523
▁토로	-9524
▁낙동강	-9525
▁한꺼	-9526
▁몽골	-9527
▁전쟁을	-9528
▁댄	-9529
▁론칭	-9530
조로	-9531
▁알지	-9532
▁줬	-9533
▁주저	-9534
되었고	-9535
투어	-9536
▁임차	-9537
▁작곡	-9538
▁학원	-9539
▁밝은	-9540
▁고유	-9541
▁준비가	-9542
▁파주	-9543
TF	-9544
▁물건을	-9545
▁사각	-9546
▁파티	-9547
더라	-9548
▁나면	-9549
▁추후	-9550
▁신분으로	-9551
▁출자	-9552
▁가족과	-9553
▁마라	-9554
▁정확하게	-9555
▁중시	-9556
하신	-9557
▁홈페이지에	-9558
면이	-9559
▁그렇지만	-9560
내지	-9561
업에	-9562
▁초등학생	-9563
▁전제	-9564
▁메인	-9565
이었다고	-9566
남부	-9567
▁소득주도	-9568
▁인문	-9569
▁서울고	-9570
▁지방선거를	-9571
▁마르	-9572
▁찍은	-9573
▁야권	-9574
▁밀집	-9575
▁여부는	-9576
▁국적	-9577
▁소식이	-9578
▁오직	-9579
▁학생들에게	-9580
▁양쪽	-9581
▁인테리어	-9582
▁증가하는	-9583
▁생각은	-9584
▁바르	-9585
▁무역전쟁	-9586
들께	-9587
▁방송을	-9588
▁종종	-9589
융합	-9590
▁은폐	-9591
▁당국이	-9592
설명	-9593
▁화해	-9594
▁치고	-9595
▁준비하는	-9596
▁이어진다	-9597
▁흠	-9598
기한	-9599
▁바닥에	-9600
▁판사는	-9601
우지	-9602
▁벗어	-9603
대인	-9604
▁이어갔다	-9605
보지	-9606
▁노력하겠다고	-9607
▁강력히	-9608
안타	-9609
▁국정농단	-9610
년만에	-9611
수당	-9612
▁위장	-9613
▁워크숍	-9614
만명을	-9615
▁애니메이션	-9616
▁휩싸	-9617
▁면밀	-9618
▁나타나고	-9619
▁동아시아	-9620
▁고스	-9621
▁하니	-9622
BM	-9623
▁평균점	-9624
▁노동조합	-9625
▁의지	-9626
▁석방	-9627
▁의원들의	-9628
▁개최를	-9629
▁관리하는	-9630
▁라이온	-9631
▁뉴시스	-9632
청정	-9633
▁트럭	-9634
▁큐	-9635
▁정책과	-9636
▁태도	-9637
▁시나리오	-9638
였다는	-9639
▁입력	-9640
▁맘	-9641
▁몰랐	-9642
▁특별히	-9643
▁장관을	-9644
▁위험을	-9645
석의	-9646
▁차지하고	-9647
▁아이디어를	-9648
▁높아졌다	-9649
그래	-9650
▁평가다	-9651
▁적용할	-9652
제작	-9653
▁민간인	-9654
▁아메	-9655
▁경제를	-9656
▁애플리	-9657
▁140	-9658
탱크	-9659
▁일반적인	-9660
▁영웅	-9661
▁돌아온	-9662
결과를	-9663
▁혐의가	-9664
▁획기	-9665
▁외신	-9666
▁법원행정	-9667
▁임대주택	-9668
▁어우러	-9669
교를	-9670
보도	-9671
▁한꺼번에	-9672
▁하나다	-9673
▁에코	-9674
▁AFP	-9675
캐피	-9676
청과	-9677
▁과천	-9678
▁인턴	-9679
룸에서	-9680
▁이태	-9681
역사	-9682
▁구형	-9683
배에	-9684
▁아직까지	-9685
▁젠	-9686
▁문제도	-9687
▁특강	-9688
일랜드	-9689
▁느낌이	-9690
▁공적	-9691
▁한가	-9692
으므로	-9693
결이	-9694
▁농식품	-9695
기인	-9696
설계	-9697
▁브리핑을	-9698
▁건네	-9699
▁서울시가	-9700
채를	-9701
▁우리은행	-9702
▁최다	-9703
▁않았습니다	-9704
▁의원도	-9705
▁앱을	-9706
▁국토교통부	-9707
▁터져	-9708
▁제이	-9709
찰을	-9710
텔레콤은	-9711
▁신청할	-9712
▁설립된	-9713
▁되었	-9714
유플러	-9715
▁움직임이	-9716
▁도의	-9717
▁미치지	-9718
▁흩	-9719
▁재임	-9720
▁정권이	-9721
▁집회를	-9722
시간에	-9723
▁렀	-9724
렸지만	-9725
▁가벼운	-9726
졌을	-9727
경에	-9728
▁서귀	-9729
▁골드	-9730
▁날짜	-9731
목적	-9732
티스	-9733
▁160	-9734
▁보험료	-9735
▁거기에	-9736
▁진단했다	-9737
▁똑같은	-9738
▁하도	-9739
cm	-9740
▁비중은	-9741
시고	-9742
▁세계에	-9743
▁업그	-9744
▁재현	-9745
▁직원들의	-9746
▁복구	-9747
▁PB	-9748
회의실에서	-9749
▁안된다	-9750
하길	-9751
▁두는	-9752
시쯤	-9753
▁추이를	-9754
▁관절	-9755
▁하드	-9756
▁아르바이트	-9757
▁대구시	-9758
▁확인된	-9759
과를	-9760
▁하남	-9761
▁정상이	-9762
▁정통	-9763
▁마련을	-9764
▁IM	-9765
마가	-9766
홀딩	-9767
▁메디	-9768
▁이들에게	-9769
▁선거구	-9770
▁앞으로는	-9771
AI	-9772
32	-9773
▁나타날	-9774
▁남동	-9775
▁혁명	-9776
▁발생하지	-9777
▁김선	-9778
▁프로세	-9779
▁갖췄다	-9780
▁불필	-9781
보자	-9782
▁이곳에서	-9783
▁침체	-9784
▁보호를	-9785
▁살짝	-9786
▁어둠	-9787
치와	-9788
▁참여하고	-9789
▁수익률	-9790
▁합법	-9791
▁92	-9792
▁청렴	-9793
▁일본군	-9794
위원장의	-9795
▁덴	-9796
▁경찰과	-9797
▁하겠다는	-9798
▁다해	-9799
▁안정적으로	-9800
▁평균점수인	-9801
▁바른정	-9802
억여	-9803
▁처음부터	-9804
▁모델로	-9805
▁민주당의	-9806
▁나은	-9807
▁몰라	-9808
▁없었다고	-9809
▁인천시	-9810
▁일본에서	-9811
os	-9812
▁늘리는	-9813
됐으나	-9814
▁도착한	-9815
▁싶었다	-9816
▁제기되고	-9817
▁횟	-9818
▁여름철	-9819
▁땐	-9820
▁서비스가	-9821
▁곰	-9822
▁지지율	-9823
▁출신으로	-9824
환경을	-9825
▁발송	-9826
▁예산이	-9827
▁구멍	-9828
▁일방적으로	-9829
▁소련	-9830
▁대여	-9831
▁즐기	-9832
▁지키는	-9833
통제	-9834
▁노력하겠다	-9835
▁맞춘	-9836
사법	-9837
▁사우디	-9838
▁삼성바이오로직	-9839
지원센터	-9840
75	-9841
▁1995	-9842
▁아이들을	-9843
▁하천	-9844
▁모르고	-9845
▁불꽃	-9846
▁세력	-9847
▁만만	-9848
▁김민	-9849
▁에스케이	-9850
▁맞물	-9851
▁지시를	-9852
▁금감원은	-9853
▁제안을	-9854
▁여성을	-9855
▁날을	-9856
카데미	-9857
▁사로잡	-9858
▁보낼	-9859
▁보내고	-9860
▁가산	-9861
▁나라가	-9862
▁마찬가지다	-9863
▁만이다	-9864
▁개최한다고	-9865
기계	-9866
교과	-9867
즈의	-9868
림이	-9869
학의	-9870
▁참여한다	-9871
▁인건비	-9872
르며	-9873
▁다를	-9874
▁보이며	-9875
▁최대의	-9876
자리에	-9877
▁늦게	-9878
▁장기간	-9879
▁측면이	-9880
▁나눴	-9881
▁명확히	-9882
▁특활	-9883
▁가축	-9884
스트는	-9885
▁그해	-9886
기정	-9887
▁저하	-9888
▁성동	-9889
테이너	-9890
히지	-9891
▁롯데백화점	-9892
▁분이	-9893
▁팔레	-9894
▁서귀포	-9895
▁사망한	-9896
침을	-9897
▁노래를	-9898
▁수의	-9899
▁부의	-9900
사카	-9901
▁주었다	-9902
▁기지	-9903
▁카이	-9904
▁업계의	-9905
▁살피	-9906
영향	-9907
▁즐거운	-9908
진영	-9909
▁적자	-9910
▁두루	-9911
▁바라보고	-9912
▁주체	-9913
▁매니	-9914
▁이화	-9915
▁체계를	-9916
▁경유	-9917
있었다	-9918
▁현대모	-9919
▁화이트	-9920
▁공기업	-9921
▁붙여	-9922
▁들어서는	-9923
개에	-9924
주차	-9925
▁미소를	-9926
▁방문을	-9927
양은	-9928
▁신의	-9929
업체인	-9930
▁외교적	-9931
▁무효	-9932
원인	-9933
▁학생들을	-9934
총회	-9935
럽게	-9936
주인	-9937
▁대책이	-9938
▁요양	-9939
▁생겼	-9940
▁행사에는	-9941
문화를	-9942
▁골든	-9943
▁그중	-9944
▁누구도	-9945
분으로	-9946
▁단백	-9947
▁굽	-9948
▁출시된	-9949
▁안정을	-9950
▁내보	-9951
회하는	-9952
▁개정을	-9953
▁전환을	-9954
▁남용	-9955
▁줄이기	-9956
▁소음	-9957
▁지속될	-9958
담보대출	-9959
▁결정이	-9960
사업이	-9961
기본	-9962
▁젊은이	-9963
전문가	-9964
▁시작할	-9965
베이션	-9966
이면서	-9967
교회	-9968
▁대치	-9969
▁마침내	-9970
▁수준인	-9971
기관인	-9972
▁선착순	-9973
교수	-9974
▁소비자들이	-9975
변호	-9976
만원이다	-9977
▁빈곤	-9978
▁사육	-9979
ver	-9980
종은	-9981
▁압박을	-9982
▁병원에	-9983
▁확실한	-9984
▁코너	-9985
기관과	-9986
▁대학의	-9987
차산업	-9988
▁고용노동부	-9989
▁저소득층	-9990
자산운용	-9991
원대의	-9992
모델링	-9993
▁플로	-9994
▁커졌다	-9995
▁인터뷰를	-9996
▁관련이	-9997
▁넣고	-9998
▁노력할	-9999
고객	-10000
▁제안한	-10001
▁프로그램은	-10002
걸음	-10003
▁여지가	-10004
▁증정한다	-10005
▁감추	-10006
▁연말까지	-10007
▁지점	-10008
문제를	-10009
▁확대에	-10010
▁막고	-10011
▁화합	-10012
청소년	-10013
마리	-10014
차례에	-10015
▁기름	-10016
▁눈치	-10017
▁찔	-10018
▁답답	-10019
▁정도는	-10020
▁일부는	-10021
▁찾아가는	-10022
지역으로	-10023
▁상담을	-10024
▁데리고	-10025
하의	-10026
▁생기는	-10027
건설이	-10028
통은	-10029
▁살아남	-10030
▁샘	-10031
▁중요성을	-10032
▁SM	-10033
역은	-10034
▁수상했다	-10035
▁The	-10036
▁사업이다	-10037
▁정보가	-10038
▁긍정적으로	-10039
▁노력하고	-10040
소장	-10041
▁저질	-10042
▁비춰	-10043
셀러	-10044
▁만기	-10045
▁옛날	-10046
▁김장	-10047
▁다음으로	-10048
▁무언	-10049
▁6.	-10050
두환	-10051
▁우려도	-10052
▁선수가	-10053
▁김형	-10054
상환	-10055
청구	-10056
▁앵	-10057
▁글이	-10058
▁폭이	-10059
▁지역구	-10060
▁선수들이	-10061
▁당신의	-10062
▁키우는	-10063
▁병원에서	-10064
▁배가	-10065
▁움직이는	-10066
▁종전선언	-10067
▁유지되고	-10068
▁안다	-10069
▁모습으로	-10070
▁편의를	-10071
▁현대모비스	-10072
여명	-10073
치면	-10074
▁하얀	-10075
학기	-10076
▁사실이다	-10077
집행	-10078
인민	-10079
▁국빈	-10080
▁회사에	-10081
▁안전하게	-10082
원전	-10083
▁관리에	-10084
▁부산의	-10085
▁비율을	-10086
욕을	-10087
스레	-10088
▁지난해부터	-10089
▁발언은	-10090
▁명목으로	-10091
성장을	-10092
▁팔아	-10093
▁김씨가	-10094
▁플라	-10095
▁사항을	-10096
▁살충제	-10097
▁노하우를	-10098
▁이뤘	-10099
▁수산	-10100
▁크기	-10101
▁없어서	-10102
정비	-10103
팀장은	-10104
▁못하면	-10105
▁국민적	-10106
▁일괄	-10107
▁핸드	-10108
▁법원의	-10109
워서	-10110
▁제출했다	-10111
▁공약을	-10112
▁이어져	-10113
▁무용	-10114
▁예산안	-10115
▁프레스	-10116
▁피할	-10117
▁챙겨	-10118
▁재확인	-10119
▁1987	-10120
▁갈라	-10121
▁수감	-10122
▁문제다	-10123
▁UAE	-10124
▁육박	-10125
폰을	-10126
▁자리잡	-10127
▁바꿀	-10128
센티브	-10129
▁이곳에	-10130
▁조국	-10131
고와	-10132
▁상장기업	-10133
▁부통령	-10134
만대	-10135
▁갇	-10136
▁예정입니다	-10137
사업으로	-10138
▁정도를	-10139
롭고	-10140
▁승용차	-10141
사진을	-10142
렸다는	-10143
▁결정한	-10144
▁해명	-10145
▁생각할	-10146
관리를	-10147
▁응모	-10148
▁곤란	-10149
▁피로	-10150
▁학교를	-10151
▁자식	-10152
▁점심	-10153
▁만화	-10154
인치	-10155
아동	-10156
나고	-10157
▁이어갈	-10158
▁타격	-10159
▁제품이다	-10160
▁동결	-10161
▁카드를	-10162
▁문서	-10163
55	-10164
▁광명	-10165
▁생명을	-10166
신한	-10167
▁반환	-10168
▁내년에	-10169
▁논평을	-10170
▁부르는	-10171
▁하나를	-10172
▁성수	-10173
▁먹거리	-10174
▁여론이	-10175
▁위치해	-10176
▁박지	-10177
보수	-10178
장관이	-10179
▁주방	-10180
▁나노	-10181
▁두각을	-10182
소통	-10183
▁분위기다	-10184
사실	-10185
▁집안	-10186
색의	-10187
▁학교에서	-10188
▁근거가	-10189
▁없으며	-10190
▁버렸다	-10191
경찰서	-10192
▁자는	-10193
▁오고	-10194
▁눌	-10195
▁연구팀은	-10196
▁서비스는	-10197
시즌	-10198
▁김일	-10199
▁불과했다	-10200
▁본인의	-10201
▁레스토	-10202
▁세트	-10203
▁만든다	-10204
▁스케	-10205
▁자꾸	-10206
▁위촉	-10207
▁띠	-10208
▁이상은	-10209
▁조직을	-10210
▁열대	-10211
▁빨라	-10212
보로	-10213
병이	-10214
군수	-10215
▁해방	-10216
대전	-10217
▁농림축산식품	-10218
▁박사는	-10219
▁확보하고	-10220
▁보전	-10221
▁긴밀한	-10222
어와	-10223
▁KE	-10224
▁공유하고	-10225
담한	-10226
▁자세히	-10227
▁멀티	-10228
▁진압	-10229
▁대법관	-10230
▁공청	-10231
▁81	-10232
▁크다고	-10233
▁시가총액은	-10234
통신은	-10235
▁일산	-10236
▁것만	-10237
▁거대	-10238
▁대변인	-10239
▁거라고	-10240
▁위헌	-10241
▁카카오톡	-10242
▁스타벅	-10243
과제	-10244
하자고	-10245
▁사용하고	-10246
▁주변의	-10247
▁깨끗한	-10248
▁공장을	-10249
▁실시했다	-10250
▁만일	-10251
▁주한미군	-10252
▁싫어	-10253
▁레스토랑	-10254
▁게임을	-10255
▁선정했다	-10256
였으며	-10257
▁싼	-10258
▁자존	-10259
▁폭넓	-10260
▁종합적으로	-10261
청을	-10262
▁대응할	-10263
리자	-10264
▁플라스틱	-10265
퇴근	-10266
▁비공	-10267
▁마스터	-10268
▁항소심	-10269
▁찢	-10270
▁합의에	-10271
▁디자인을	-10272
▁향상을	-10273
임이	-10274
▁역설	-10275
▁명령을	-10276
▁영유	-10277
▁수확	-10278
▁법원에	-10279
우를	-10280
지상	-10281
▁공화당	-10282
▁고가	-10283
▁얼음	-10284
▁역사의	-10285
▁출생	-10286
자나	-10287
▁핀테크	-10288
▁당대표	-10289
▁정치를	-10290
▁김치	-10291
보에	-10292
해진다	-10293
▁링	-10294
▁혐의도	-10295
전용	-10296
▁재료	-10297
▁단지는	-10298
▁확보할	-10299
▁율	-10300
▁연결하는	-10301
▁국무부	-10302
보좌	-10303
▁모금	-10304
▁드래곤	-10305
라면서	-10306
▁예정이며	-10307
지방경찰청	-10308
▁기관의	-10309
이게	-10310
▁부드러운	-10311
답게	-10312
▁박차를	-10313
해서는	-10314
▁검토할	-10315
▁신고리	-10316
▁1,	-10317
▁이상인	-10318
▁라이브	-10319
▁에서는	-10320
▁선호하는	-10321
시픽	-10322
▁과제를	-10323
▁확보해	-10324
▁추진을	-10325
▁확보했다	-10326
▁내용에	-10327
▁구성된다	-10328
▁1994	-10329
▁것인데	-10330
정부가	-10331
▁당연한	-10332
▁체결했다고	-10333
▁텐데	-10334
▁지시했다	-10335
▁거주하는	-10336
연은	-10337
▁의혹과	-10338
▁린	-10339
▁입장에서는	-10340
되던	-10341
문화재	-10342
▁다할	-10343
세권	-10344
▁고스란히	-10345
▁가까워	-10346
재난	-10347
버렸다	-10348
봅니다	-10349
▁형식	-10350
▁분석된다	-10351
겨진	-10352
▁성명	-10353
집에서	-10354
▁순이었다	-10355
들여	-10356
▁럭	-10357
▁구성돼	-10358
▁열차	-10359
▁서둘러	-10360
▁당신은	-10361
▁항만	-10362
▁93	-10363
고도	-10364
▁티켓	-10365
▁없으면	-10366
파는	-10367
원자	-10368
▁입지	-10369
▁배경으로	-10370
▁정보는	-10371
화했다	-10372
▁주무	-10373
▁소통을	-10374
▁그림을	-10375
▁필요할	-10376
▁분담	-10377
▁빨간	-10378
▁인간이	-10379
▁김씨	-10380
▁자료에	-10381
▁떨어뜨	-10382
▁인식이	-10383
▁쪽에	-10384
▁서대문	-10385
▁걸음	-10386
▁아시아나항공	-10387
받는다	-10388
티즌	-10389
▁점검하고	-10390
MC	-10391
▁감당	-10392
▁적었다	-10393
▁구호	-10394
▁아이들	-10395
돌이	-10396
▁선거운동	-10397
▁비교하면	-10398
▁기기	-10399
기간을	-10400
▁온갖	-10401
▁간단한	-10402
블록	-10403
▁중에서도	-10404
천원	-10405
▁휴게	-10406
▁홈런	-10407
▁임대료	-10408
▁분열	-10409
▁개소	-10410
▁회피	-10411
▁웃었다	-10412
▁중증	-10413
▁꾀	-10414
▁다하겠다고	-10415
▁7000	-10416
▁형식으로	-10417
▁호응을	-10418
▁의미다	-10419
▁세우고	-10420
▁섬유	-10421
▁추출	-10422
유럽	-10423
▁적용된다	-10424
▁현대차는	-10425
▁표창	-10426
위인	-10427
▁수비	-10428
▁쪼	-10429
회복	-10430
닷컴	-10431
▁가만히	-10432
▁우원식	-10433
▁짐작	-10434
▁평등	-10435
에서다	-10436
▁위해서다	-10437
하기가	-10438
▁싶다고	-10439
▁방식의	-10440
▁비닐	-10441
▁득표	-10442
▁과일	-10443
▁중소기업의	-10444
▁오지	-10445
▁폭스	-10446
▁얽	-10447
▁믿을	-10448
▁얘기가	-10449
▁프로그램이	-10450
▁보자	-10451
▁해병	-10452
▁표결	-10453
▁판교	-10454
▁잠을	-10455
▁거점	-10456
▁지키고	-10457
▁고맙	-10458
48	-10459
▁팔을	-10460
▁시그	-10461
▁저출산	-10462
ir	-10463
▁소매	-10464
▁봐도	-10465
▁식사를	-10466
▁클래식	-10467
터는	-10468
월한	-10469
서치	-10470
▁양식	-10471
▁관료	-10472
입을	-10473
▁체제를	-10474
▁돋보	-10475
▁강북	-10476
간을	-10477
▁아이의	-10478
▁이경	-10479
▁인류	-10480
▁공급하는	-10481
추천	-10482
▁컵	-10483
▁존경	-10484
▁당당	-10485
시장과	-10486
▁솟	-10487
▁강좌	-10488
▁안팎의	-10489
인재	-10490
▁다각	-10491
▁외식	-10492
▁인센티브	-10493
▁서서히	-10494
▁어쩌면	-10495
감으로	-10496
▁배를	-10497
값이	-10498
▁매수의	-10499
개사	-10500
▁다주택	-10501
▁상정	-10502
▁문제점을	-10503
▁진학	-10504
▁판사	-10505
네스코	-10506
▁광범위	-10507
▁얼굴에	-10508
워드	-10509
▁진전	-10510
▁감정을	-10511
현장	-10512
▁신장	-10513
▁간담회에서	-10514
▁상고	-10515
▁트리	-10516
품이	-10517
표준	-10518
▁식민	-10519
▁공식적으로	-10520
▁상습	-10521
▁서식	-10522
▁없던	-10523
▁아무래도	-10524
▁아버지가	-10525
▁8000	-10526
▁짓는	-10527
▁맞았다	-10528
▁일어날	-10529
▁소홀	-10530
▁단단	-10531
▁부문에서	-10532
▁공간으로	-10533
▁지정된	-10534
▁리모델링	-10535
인상	-10536
▁청와대의	-10537
▁폭탄	-10538
▁활용하는	-10539
▁얼굴로	-10540
▁기본적으로	-10541
▁나쁨	-10542
▁바랍니다	-10543
▁숨졌다	-10544
카페	-10545
▁동향	-10546
▁최적의	-10547
▁전국적으로	-10548
니가	-10549
▁전두환	-10550
▁작업에	-10551
▁개선이	-10552
▁넘어섰다	-10553
▁막는	-10554
▁양승	-10555
▁새정치	-10556
▁죽음을	-10557
전지	-10558
거래일	-10559
▁진심으로	-10560
▁때문이었다	-10561
DC	-10562
▁러시아의	-10563
▁표현을	-10564
▁박수	-10565
▁늘리고	-10566
▁공간이	-10567
동과	-10568
▁불투	-10569
▁미얀마	-10570
▁일본에	-10571
▁특사	-10572
원들은	-10573
▁대통령도	-10574
▁유인	-10575
▁구로	-10576
▁시험을	-10577
▁침몰	-10578
▁때문으로	-10579
서부	-10580
▁김연	-10581
력발전	-10582
▁당기	-10583
▁여가	-10584
▁사임	-10585
▁원으로	-10586
▁국회를	-10587
▁잃고	-10588
내며	-10589
배우	-10590
▁진행한다고	-10591
▁민감한	-10592
▁누군가	-10593
▁원인으로	-10594
▁업체는	-10595
슨은	-10596
▁유성	-10597
▁확인하는	-10598
▁제공한	-10599
▁주관하는	-10600
▁메이저	-10601
▁판단해	-10602
▁불가능한	-10603
▁2500	-10604
▁롤	-10605
▁처음에는	-10606
▁사용을	-10607
▁모으고	-10608
▁간다	-10609
▁읽어	-10610
루를	-10611
▁전액	-10612
▁원가	-10613
▁리포	-10614
▁소멸	-10615
▁물론이고	-10616
▁인상에	-10617
▁제공된다	-10618
저축	-10619
▁대행	-10620
베스트	-10621
▁효율성	-10622
메시	-10623
▁끌려	-10624
▁아픈	-10625
▁프린	-10626
▁가입자	-10627
▁생각하지	-10628
▁소극	-10629
티드	-10630
보조	-10631
▁일로	-10632
▁규제가	-10633
▁고려한	-10634
▁각자	-10635
▁단계적으로	-10636
객이	-10637
▁현상을	-10638
되게	-10639
▁급속	-10640
▁하도록	-10641
▁금융위	-10642
▁시작하는	-10643
▁오래된	-10644
▁노벨	-10645
▁축적	-10646
탄도미사일	-10647
▁장면을	-10648
긴다	-10649
▁굿	-10650
▁한국지엠	-10651
▁과목	-10652
임에도	-10653
▁밝혀졌다	-10654
▁보고를	-10655
▁전사	-10656
거리가	-10657
▁반려동물	-10658
▁아이들은	-10659
▁우리나라는	-10660
되는데	-10661
▁인정하고	-10662
▁겪은	-10663
▁이의	-10664
▁모를	-10665
▁비율은	-10666
▁비난했다	-10667
▁제임	-10668
소시엄	-10669
▁상실	-10670
▁뜬	-10671
▁검을	-10672
▁목표주가를	-10673
▁맺은	-10674
미의	-10675
▁출하	-10676
▁시점에	-10677
▁법인세	-10678
▁학생부	-10679
▁방문하는	-10680
일에도	-10681
캠프	-10682
지사가	-10683
▁외곽	-10684
▁중소형	-10685
▁법안을	-10686
작을	-10687
재료	-10688
▁행태	-10689
▁허가를	-10690
▁유네스코	-10691
▁셋째	-10692
즈가	-10693
▁인구가	-10694
▁분석도	-10695
발의	-10696
▁농어	-10697
▁일대에서	-10698
▁돌봄	-10699
▁모두발	-10700
▁가파	-10701
빌딩	-10702
▁정상회담이	-10703
▁록	-10704
▁한계	-10705
▁전반적인	-10706
▁야당의	-10707
▁중지	-10708
로서의	-10709
▁행사에서	-10710
▁되풀이	-10711
▁주유	-10712
▁후보자가	-10713
▁최경	-10714
▁모듈	-10715
▁면서도	-10716
▁수석은	-10717
▁흡연	-10718
▁보다는	-10719
▁정상적인	-10720
▁확대될	-10721
▁안을	-10722
년보다	-10723
트랙	-10724
가기	-10725
▁과시	-10726
매물	-10727
▁절차에	-10728
▁갤럭시노트	-10729
▁동서	-10730
▁휴식	-10731
▁물건	-10732
▁재학생	-10733
▁싣	-10734
▁양보	-10735
▁남구	-10736
▁도저히	-10737
▁의견도	-10738
▁내용으로	-10739
▁일선	-10740
▁오르고	-10741
규칙	-10742
▁마포	-10743
▁전산	-10744
▁이후에는	-10745
▁회원국	-10746
▁말했다고	-10747
▁인사가	-10748
▁소감을	-10749
▁복용	-10750
▁남겼다	-10751
생물	-10752
▁지난해보다	-10753
▁선언한	-10754
▁제로	-10755
▁감싸	-10756
▁노원	-10757
▁좌파	-10758
▁설립한	-10759
▁뚜렷한	-10760
였는데	-10761
단에서	-10762
▁예금	-10763
▁비로	-10764
▁했으며	-10765
분쟁	-10766
▁미국산	-10767
▁펼쳤다	-10768
▁다채로운	-10769
▁탄력	-10770
▁캔	-10771
▁형제	-10772
▁프라이	-10773
▁적도	-10774
▁기대했다	-10775
▁벌이는	-10776
▁지역별	-10777
▁공기청정	-10778
▁머무	-10779
▁여야가	-10780
▁적어	-10781
▁그러다	-10782
▁선진국	-10783
내에서	-10784
▁초대형	-10785
▁부추	-10786
▁쪽이	-10787
▁거리에	-10788
▁프로모션	-10789
명령	-10790
▁성적을	-10791
▁안전관리	-10792
▁분야를	-10793
사업자	-10794
▁블라디	-10795
▁이겨	-10796
폴리오	-10797
▁김주	-10798
▁처럼	-10799
▁이젠	-10800
부동산	-10801
▁성과가	-10802
지원을	-10803
▁자유를	-10804
▁가족의	-10805
▁제도가	-10806
▁자리가	-10807
▁임무	-10808
▁때의	-10809
만명의	-10810
▁역할이	-10811
▁롱	-10812
▁신경을	-10813
직자	-10814
▁경찰관	-10815
▁주장한	-10816
실적	-10817
▁찬반	-10818
▁조류	-10819
▁지고	-10820
▁아직은	-10821
▁올릴	-10822
▁정상은	-10823
층은	-10824
▁선별	-10825
▁이름은	-10826
▁아기	-10827
▁됐다며	-10828
▁합리적	-10829
▁대화가	-10830
▁창출을	-10831
▁한국은행	-10832
▁도입해	-10833
여명을	-10834
▁스캔	-10835
▁권력을	-10836
▁정전	-10837
기준을	-10838
▁일회	-10839
▁유상	-10840
▁장비를	-10841
▁길게	-10842
▁과거의	-10843
▁핵무기	-10844
▁부사장은	-10845
▁전시회	-10846
▁시일	-10847
크라	-10848
▁기온은	-10849
▁요청을	-10850
▁그야말로	-10851
▁전남도	-10852
▁채용비리	-10853
▁캡	-10854
▁나쁘	-10855
▁아닐까	-10856
유가	-10857
▁익숙	-10858
▁금융투자	-10859
월의	-10860
ut	-10861
▁최후	-10862
▁여권	-10863
▁영등포	-10864
▁죽을	-10865
시에서	-10866
▁위치를	-10867
데스	-10868
가에서	-10869
▁고객들의	-10870
▁딴	-10871
▁않기로	-10872
▁다하겠다	-10873
▁특수활동	-10874
렸을	-10875
▁변호인	-10876
▁틸러	-10877
데이트	-10878
▁민주평화당	-10879
▁불거진	-10880
▁번도	-10881
▁장식	-10882
▁버리고	-10883
33	-10884
▁새끼	-10885
▁외국인은	-10886
▁끄덕	-10887
진한	-10888
▁곱	-10889
▁내밀	-10890
나눔	-10891
▁헛	-10892
▁후임	-10893
▁주목할	-10894
▁이인	-10895
▁기준에	-10896
▁흥행	-10897
▁방식이	-10898
▁당이	-10899
▁아모	-10900
▁결정하는	-10901
티스트	-10902
▁금융감독원	-10903
▁관계없이	-10904
▁정책위의	-10905
주교	-10906
▁사용하지	-10907
▁바꾼	-10908
▁월급	-10909
▁후에는	-10910
▁귀족	-10911
▁청와대와	-10912
▁팔레스타	-10913
▁산업통상자원부	-10914
▁참가해	-10915
▁조건으로	-10916
고등학교	-10917
전선	-10918
▁개혁을	-10919
▁성장세를	-10920
▁펄	-10921
▁내놓고	-10922
▁유독	-10923
46	-10924
▁이하로	-10925
▁급식	-10926
▁소위	-10927
케스트	-10928
집에	-10929
▁떨어질	-10930
루미늄	-10931
▁정당한	-10932
상공회의	-10933
▁두려워	-10934
▁우려했다	-10935
▁다이어	-10936
▁탄탄	-10937
스크포	-10938
▁정선	-10939
격으로	-10940
▁운영해	-10941
▁자부	-10942
▁구는	-10943
능력을	-10944
▁건물을	-10945
지역에서	-10946
▁출장	-10947
하듯	-10948
▁이르기까지	-10949
▁자라	-10950
▁주장에	-10951
화되고	-10952
센터와	-10953
▁제작한	-10954
▁법령	-10955
▁개발하고	-10956
헬스	-10957
▁목표주가는	-10958
▁오름	-10959
▁본부장은	-10960
▁웹툰	-10961
▁선택을	-10962
▁전체가	-10963
▁중진	-10964
▁높아질	-10965
광고	-10966
▁후쿠	-10967
취업	-10968
어린이	-10969
▁학과	-10970
조리	-10971
▁컨테이너	-10972
▁걸림	-10973
▁공동주택	-10974
▁소장은	-10975
주군	-10976
▁줄을	-10977
▁경로	-10978
▁독려	-10979
▁거짓말	-10980
▁그녀를	-10981
▁혐오	-10982
역의	-10983
▁문체	-10984
▁자금이	-10985
▁축산	-10986
▁다큐	-10987
▁목을	-10988
▁최근의	-10989
▁읽고	-10990
▁올해의	-10991
터테인먼트	-10992
▁부터	-10993
▁가톨릭	-10994
▁까닭	-10995
도까지	-10996
▁경제부총	-10997
▁깨닫	-10998
▁부진한	-10999
▁비극	-11000
▁본래	-11001
▁최장	-11002
빨리	-11003
▁활동이	-11004
▁않겠다고	-11005
▁맑은	-11006
▁행정안전부	-11007
▁군수	-11008
▁네티즌	-11009
▁부러	-11010
▁주택담보대출	-11011
▁차질	-11012
▁독립운동	-11013
▁램	-11014
▁요인으로	-11015
OU	-11016
▁경신	-11017
감도	-11018
거렸다	-11019
균형	-11020
▁공정위는	-11021
▁때에는	-11022
▁약한	-11023
원들의	-11024
▁여학생	-11025
▁잠깐	-11026
졌으며	-11027
니스트	-11028
▁틸러슨	-11029
▁현장의	-11030
▁상승을	-11031
▁묻자	-11032
▁기본적인	-11033
으로서의	-11034
▁경제정책	-11035
▁예비후보는	-11036
▁경향이	-11037
마케팅	-11038
배가	-11039
▁시티	-11040
밸리	-11041
프의	-11042
▁국민과	-11043
▁장려	-11044
▁우대	-11045
47	-11046
▁드리	-11047
업체가	-11048
▁정성	-11049
▁기간은	-11050
▁부드	-11051
▁동대문	-11052
▁절차가	-11053
▁경북도	-11054
우주	-11055
▁패러다	-11056
▁람	-11057
단계로	-11058
▁인종	-11059
▁무죄를	-11060
▁태어	-11061
세훈	-11062
▁경우에도	-11063
▁제기된다	-11064
▁신차	-11065
▁재선	-11066
▁구름	-11067
▁투표를	-11068
▁도입한	-11069
▁논리	-11070
▁상의	-11071
▁준비했다	-11072
▁유감	-11073
▁주파	-11074
▁예정돼	-11075
▁비상대책	-11076
▁불평등	-11077
여야	-11078
▁감사를	-11079
▁공정위	-11080
▁스트레스	-11081
▁된다면	-11082
▁협의해	-11083
▁추가적인	-11084
▁나눈	-11085
▁양질의	-11086
▁1996	-11087
▁끈다	-11088
▁강수	-11089
▁불편한	-11090
▁마사	-11091
▁성능을	-11092
현은	-11093
▁언젠	-11094
▁힐링	-11095
▁예상보다	-11096
르타	-11097
▁김여	-11098
▁총리와	-11099
▁소비자의	-11100
▁실질적	-11101
DP	-11102
▁시원	-11103
▁자립	-11104
줄이	-11105
▁하기로	-11106
▁여부가	-11107
▁사모	-11108
▁순수	-11109
회사의	-11110
▁현대백화점	-11111
▁있으므로	-11112
▁운영된다	-11113
▁청취	-11114
▁경제에	-11115
▁계승	-11116
▁요청한	-11117
함은	-11118
▁담겼다	-11119
일자리	-11120
▁속의	-11121
있고	-11122
▁관광객이	-11123
▁괴롭	-11124
▁곳도	-11125
▁중이던	-11126
생의	-11127
▁복무	-11128
▁지급하는	-11129
▁수요를	-11130
▁목소리도	-11131
거리며	-11132
▁나지	-11133
▁높아진	-11134
▁하는지	-11135
십자	-11136
▁궁극	-11137
토리	-11138
▁벌어졌다	-11139
▁의무를	-11140
이었으나	-11141
▁이루고	-11142
▁모의	-11143
▁성별	-11144
▁준비한	-11145
▁바라보았다	-11146
▁고립	-11147
▁않는다면	-11148
해줄	-11149
▁국비	-11150
▁트레이	-11151
▁알루미늄	-11152
▁동의를	-11153
▁대법원장	-11154
▁의사가	-11155
▁뜻으로	-11156
▁괌	-11157
▁톱	-11158
코리아는	-11159
▁최소한의	-11160
▁금리를	-11161
▁정해진	-11162
우의	-11163
▁매장에서	-11164
▁침수	-11165
▁중계	-11166
세력	-11167
▁상태에	-11168
▁차례로	-11169
▁받아들일	-11170
▁대부	-11171
▁강진	-11172
▁영구	-11173
▁부위원장	-11174
▁노회	-11175
네요	-11176
▁방영	-11177
분기에	-11178
▁파라	-11179
▁높다는	-11180
통이	-11181
▁업그레이드	-11182
▁특례	-11183
▁스프	-11184
▁전반적으로	-11185
▁재산을	-11186
지부	-11187
▁본사에서	-11188
▁대표로	-11189
▁맥락	-11190
▁나서야	-11191
인들에게	-11192
▁대국민	-11193
▁생애	-11194
▁비싸	-11195
▁에게	-11196
발표	-11197
▁되자	-11198
▁수업을	-11199
▁아산	-11200
▁사업장	-11201
95	-11202
▁단위로	-11203
▁선보이고	-11204
▁전진	-11205
▁하위	-11206
속을	-11207
▁속에서도	-11208
베이터	-11209
▁슬픔	-11210
▁대표팀	-11211
▁소액	-11212
▁점수는	-11213
금리를	-11214
▁파손	-11215
▁영혼	-11216
▁이나	-11217
▁자세를	-11218
▁됐습니다	-11219
종으로	-11220
총회에서	-11221
▁원이	-11222
▁적대	-11223
▁나누는	-11224
▁확인되지	-11225
▁지역이	-11226
▁바꿨	-11227
▁지냈다	-11228
▁장치	-11229
▁버린	-11230
▁명예훼손	-11231
▁쉼	-11232
▁노르	-11233
였으나	-11234
▁나이가	-11235
▁컨트롤	-11236
▁합성	-11237
지방선거	-11238
▁수질	-11239
▁광고를	-11240
▁희망하는	-11241
류에	-11242
▁금융권	-11243
▁웃음을	-11244
막이	-11245
IP	-11246
▁상주	-11247
터가	-11248
▁한숨을	-11249
기업이	-11250
▁특성상	-11251
인들을	-11252
▁있어요	-11253
▁직원을	-11254
▁정상회담에서	-11255
분과	-11256
▁강구	-11257
▁수석대표	-11258
골프	-11259
▁취할	-11260
변을	-11261
▁메모리	-11262
▁이어지	-11263
▁노조가	-11264
▁전복	-11265
▁날씨가	-11266
▁환경에	-11267
▁시스템이	-11268
▁가슴이	-11269
곳은	-11270
▁부결	-11271
▁송치	-11272
▁최고치를	-11273
▁굵	-11274
▁대화의	-11275
▁일정으로	-11276
▁과열	-11277
▁이석	-11278
▁앞세워	-11279
▁광양	-11280
▁추측	-11281
년은	-11282
▁케이티	-11283
자에게는	-11284
북부	-11285
▁조짐	-11286
▁안전사고	-11287
차게	-11288
▁한국방송	-11289
▁송환	-11290
ur	-11291
▁비자금	-11292
▁참으로	-11293
85	-11294
▁키즈	-11295
▁정신적	-11296
▁둘러싸고	-11297
▁교과서	-11298
▁원산	-11299
▁업데이트	-11300
모가	-11301
▁서양	-11302
▁있나	-11303
▁차량에	-11304
▁가능하도록	-11305
▁최우선	-11306
▁겨울철	-11307
▁불출	-11308
▁시민들은	-11309
▁편리하게	-11310
▁미루	-11311
방문	-11312
▁손실을	-11313
▁돕기	-11314
▁중의	-11315
플랜	-11316
▁점수	-11317
▁고마	-11318
▁버티	-11319
▁빌딩	-11320
지표	-11321
▁주차장	-11322
▁출퇴근	-11323
란을	-11324
▁차명	-11325
▁보건복지부	-11326
▁되는데	-11327
▁시속	-11328
▁혜택이	-11329
한데	-11330
▁대부분은	-11331
▁91	-11332
▁무거운	-11333
▁스마트시티	-11334
효율	-11335
언스	-11336
는지를	-11337
고의	-11338
▁월간	-11339
기에는	-11340
▁제시된	-11341
▁카운	-11342
▁있다가	-11343
▁각국	-11344
▁이해를	-11345
세이	-11346
▁어쨌든	-11347
▁나뉘	-11348
▁짓고	-11349
구청장	-11350
▁당국의	-11351
▁오해	-11352
활동에	-11353
▁강세를	-11354
▁들어왔다	-11355
▁재계	-11356
▁처리를	-11357
▁거뒀다	-11358
▁한국어	-11359
▁로이터	-11360
▁날카	-11361
▁조처	-11362
▁전문가들의	-11363
로워	-11364
▁구조조	-11365
▁여파로	-11366
▁정부도	-11367
▁꾸며	-11368
▁판결이	-11369
▁이것을	-11370
여년	-11371
▁사진이	-11372
▁후보자의	-11373
▁행안	-11374
▁금액을	-11375
중을	-11376
▁독재	-11377
▁대단히	-11378
▁빠졌다	-11379
▁신청한	-11380
▁르노	-11381
가입	-11382
▁청와대에	-11383
▁무단	-11384
두는	-11385
▁붐	-11386
▁장거리	-11387
▁골라	-11388
TO	-11389
▁스타일은	-11390
▁유료	-11391
▁일부가	-11392
▁지진이	-11393
없다	-11394
▁정시	-11395
▁산출	-11396
▁하늘을	-11397
65	-11398
카드를	-11399
▁쌍용	-11400
▁하이브리	-11401
▁현지에서	-11402
▁사정	-11403
▁파는	-11404
▁출시를	-11405
▁350	-11406
▁찍어	-11407
니를	-11408
▁사라진	-11409
▁손쉽게	-11410
스러워	-11411
▁체결한	-11412
▁없지	-11413
▁힘들다	-11414
조달	-11415
동에서	-11416
▁가족을	-11417
▁시대가	-11418
▁얻는	-11419
▁의미로	-11420
▁재검토	-11421
▁불필요한	-11422
유공	-11423
▁비핵화와	-11424
▁뜯	-11425
▁팀장은	-11426
▁실질적으로	-11427
▁등재	-11428
▁면에서	-11429
▁사격	-11430
▁전월	-11431
가정	-11432
▁지키기	-11433
▁판단이	-11434
용이	-11435
▁귀가	-11436
▁조정을	-11437
▁추세다	-11438
작전	-11439
▁요구가	-11440
▁협력사	-11441
금액	-11442
▁환경이	-11443
▁통화정책	-11444
▁학생은	-11445
크가	-11446
▁눈빛	-11447
▁뒤에는	-11448
▁시술	-11449
됐다며	-11450
드린다	-11451
보유	-11452
▁기숙	-11453
▁활발한	-11454
▁포토	-11455
▁무엇인지	-11456
▁벗어나지	-11457
▁것들이	-11458
▁보도를	-11459
동은	-11460
▁1960	-11461
천군	-11462
▁성장이	-11463
oo	-11464
▁넘치는	-11465
▁온몸	-11466
필드	-11467
▁울산시	-11468
▁부평	-11469
▁균형을	-11470
▁킹	-11471
과정을	-11472
디는	-11473
▁토론회	-11474
▁공사가	-11475
▁보도자료를	-11476
▁우위를	-11477
▁점령	-11478
▁전망을	-11479
지역을	-11480
▁연계한	-11481
▁싶지	-11482
▁당국자는	-11483
리안	-11484
세종	-11485
84	-11486
▁생계	-11487
▁돼지	-11488
▁수령	-11489
▁울릉	-11490
▁것일까	-11491
▁체험할	-11492
▁구축해	-11493
▁여건	-11494
▁신발	-11495
▁대륙간	-11496
▁크리스마스	-11497
▁문화가	-11498
▁들어간다	-11499
▁코드	-11500
설비	-11501
▁나빠	-11502
▁쾌적한	-11503
▁맛이	-11504
▁손잡고	-11505
ECD	-11506
▁권유	-11507
▁조선중앙	-11508
▁일이라고	-11509
▁전주시	-11510
▁생중	-11511
▁re	-11512
▁익산	-11513
▁완벽한	-11514
▁선행	-11515
▁상공	-11516
▁낙찰	-11517
TX	-11518
▁다양하게	-11519
권으로	-11520
▁있었기	-11521
▁식의	-11522
▁결과로	-11523
▁장수	-11524
▁중형	-11525
▁증거를	-11526
▁고전	-11527
▁전에는	-11528
▁국군	-11529
▁인재를	-11530
▁촛불집	-11531
▁화재가	-11532
▁일이었다	-11533
▁한계를	-11534
▁프로그램에	-11535
▁목소리로	-11536
▁면허	-11537
▁느꼈다	-11538
▁필요로	-11539
진흥원	-11540
▁되기를	-11541
▁민감	-11542
▁윗	-11543
자연	-11544
▁국가정보원	-11545
▁매수에	-11546
조사에	-11547
▁주장은	-11548
▁플랜	-11549
▁충남도	-11550
▁미달	-11551
▁해가	-11552
코스	-11553
▁즐겨	-11554
▁보조금	-11555
▁혐의에	-11556
▁비전을	-11557
▁낡은	-11558
▁BN	-11559
▁차관은	-11560
▁없었고	-11561
▁총재는	-11562
▁업무상	-11563
▁납득	-11564
▁파격	-11565
▁웬	-11566
▁v	-11567
▁과잉	-11568
▁기대할	-11569
만원씩	-11570
▁주사	-11571
▁나흘	-11572
▁손실	-11573
▁우승을	-11574
▁기가	-11575
▁시각이	-11576
▁KI	-11577
▁최상	-11578
▁투자의견을	-11579
▁드림	-11580
▁코엑스	-11581
▁고사	-11582
▁원료	-11583
▁받았고	-11584
▁막판	-11585
으려고	-11586
▁발병	-11587
▁김부	-11588
▁푸드	-11589
▁누워	-11590
질랜드	-11591
▁통증	-11592
▁김씨의	-11593
▁끊이지	-11594
▁1200	-11595
▁노회찬	-11596
▁병원을	-11597
기관을	-11598
▁파기	-11599
시한	-11600
벽을	-11601
ter	-11602
▁문건을	-11603
▁태스크포	-11604
▁드물	-11605
▁아이돌	-11606
▁900	-11607
▁OECD	-11608
▁내용이다	-11609
▁소재로	-11610
타는	-11611
▁개정안은	-11612
▁제주시	-11613
▁최선의	-11614
그라	-11615
▁거제	-11616
▁비비	-11617
▁발탁	-11618
방은	-11619
▁내어	-11620
첨단	-11621
▁되며	-11622
▁바람을	-11623
▁대안을	-11624
▁거둔	-11625
▁부풀	-11626
▁수호	-11627
▁올레	-11628
▁주장이다	-11629
문과	-11630
▁튼	-11631
▁생성	-11632
▁등장하는	-11633
▁지원하기	-11634
▁고생	-11635
▁한류	-11636
평가를	-11637
▁공영방송	-11638
▁여신	-11639
▁KEB	-11640
▁시카	-11641
▁넉	-11642
▁언론의	-11643
▁던져	-11644
▁있어도	-11645
▁기술은	-11646
▁고무	-11647
▁정보기술	-11648
▁알바	-11649
▁소개하고	-11650
▁검토해	-11651
▁양육	-11652
민주화	-11653
저널	-11654
▁역전	-11655
민주주의	-11656
▁기술로	-11657
하지도	-11658
더스	-11659
▁흐르는	-11660
▁송금	-11661
▁않았을	-11662
▁독일의	-11663
혈압	-11664
심판	-11665
▁기대가	-11666
▁위원회	-11667
▁칭찬	-11668
▁배임	-11669
▁다리를	-11670
▁근무하는	-11671
▁이번엔	-11672
▁마포구	-11673
하느냐	-11674
▁기업들은	-11675
▁뒤인	-11676
▁선택한	-11677
홍보	-11678
▁땅에	-11679
▁유진	-11680
▁과기정	-11681
업체의	-11682
▁마산	-11683
조선해양	-11684
▁끝으로	-11685
▁사회주의	-11686
▁혀	-11687
아웃	-11688
▁않겠다	-11689
▁아시안	-11690
▁한국전쟁	-11691
▁효과적으로	-11692
라이트	-11693
문으로	-11694
▁말부터	-11695
진보	-11696
▁주도한	-11697
밀리	-11698
▁간주	-11699
▁몹	-11700
▁내용도	-11701
▁모르게	-11702
▁게이	-11703
▁중이며	-11704
▁라이온봇	-11705
▁웃으며	-11706
▁반발하고	-11707
▁자아	-11708
▁터널	-11709
헨티	-11710
시로	-11711
▁전문가들이	-11712
▁꾸준한	-11713
▁감사의	-11714
▁자유무역협정	-11715
▁인프라를	-11716
▁사용되는	-11717
▁가뭄	-11718
▁동화	-11719
▁퓨	-11720
거야	-11721
광장	-11722
▁브랜드로	-11723
▁아파트를	-11724
▁이철	-11725
▁적용된	-11726
▁상무는	-11727
▁일본을	-11728
▁정책은	-11729
▁온도	-11730
▁노란	-11731
▁엄중	-11732
DA	-11733
▁아버지는	-11734
▁압력을	-11735
FC	-11736
▁영역을	-11737
▁로켓	-11738
센트	-11739
▁1988	-11740
억원이다	-11741
▁존재하는	-11742
경의	-11743
▁투자하는	-11744
▁혁신성장	-11745
▁눈물	-11746
검사를	-11747
▁정부서울청사에서	-11748
▁판정을	-11749
▁모멘텀은	-11750
았으며	-11751
▁파고	-11752
▁과기정통	-11753
▁씽크	-11754
▁높다고	-11755
▁상륙	-11756
▁기술력을	-11757
▁작품은	-11758
▁한국당이	-11759
하고도	-11760
▁메이크	-11761
▁매진	-11762
▁스카이	-11763
▁이해관계	-11764
▁골자로	-11765
▁국감	-11766
은행과	-11767
▁헤어	-11768
퍼런스	-11769
셔서	-11770
이라면서	-11771
해서도	-11772
▁반영된	-11773
▁대법원은	-11774
소유	-11775
▁고구	-11776
TN	-11777
▁순식	-11778
▁교수와	-11779
▁원활한	-11780
▁이원	-11781
▁당했다	-11782
▁어리	-11783
▁늘리	-11784
▁어깨를	-11785
▁분명한	-11786
▁채널을	-11787
▁고민을	-11788
▁걸렸다	-11789
▁라이트	-11790
▁있느냐	-11791
▁양심	-11792
▁컨소시엄	-11793
▁네트워크를	-11794
▁멋진	-11795
▁디젤	-11796
▁현황을	-11797
겠고	-11798
위험	-11799
▁로비	-11800
▁광산	-11801
▁감찰	-11802
▁아르헨티	-11803
▁답을	-11804
▁떠났다	-11805
▁보게	-11806
▁고객들에게	-11807
병원은	-11808
▁견줘	-11809
▁법관	-11810
▁대학에	-11811
▁북한과의	-11812
브로	-11813
▁몰고	-11814
▁점검을	-11815
▁톡	-11816
시리즈	-11817
▁연상	-11818
▁죽어	-11819
▁뉴질랜드	-11820
▁유가증권	-11821
▁많았고	-11822
▁잡는	-11823
▁협상에	-11824
▁자매	-11825
▁FI	-11826
메이	-11827
▁순차적으로	-11828
▁국장은	-11829
노동자	-11830
▁신화	-11831
▁증가로	-11832
▁어긋	-11833
▁전제로	-11834
▁지난해에는	-11835
▁과반	-11836
▁계곡	-11837
연설	-11838
▁목소리	-11839
▁설치하고	-11840
▁실수요	-11841
▁상향조정	-11842
▁지나지	-11843
▁드러났	-11844
▁일자리가	-11845
시킨다	-11846
루션을	-11847
▁확정된	-11848
▁넘어선	-11849
신저	-11850
친화	-11851
▁보좌관	-11852
▁주목받고	-11853
케미	-11854
▁악용	-11855
▁개회	-11856
와이	-11857
▁시연	-11858
▁강조하고	-11859
▁남경	-11860
▁강조하는	-11861
▁사과를	-11862
협회가	-11863
▁파악됐다	-11864
유플러스	-11865
TI	-11866
▁이틀간	-11867
▁선두	-11868
▁퇴임	-11869
곳으로	-11870
▁잃어버	-11871
▁열린우리	-11872
▁피해자의	-11873
▁있겠다	-11874
▁MA	-11875
련의	-11876
▁주둔	-11877
군사	-11878
▁제임스	-11879
▁비디오	-11880
▁열흘	-11881
▁한국경제	-11882
▁잇달아	-11883
▁근접	-11884
▁델	-11885
▁가격으로	-11886
▁매력적인	-11887
▁가상통화	-11888
▁팀이	-11889
▁머리카	-11890
▁헬스케어	-11891
▁포트폴리오	-11892
▁안희정	-11893
▁극심한	-11894
▁발생하고	-11895
▁더구나	-11896
광장에서	-11897
▁랜드	-11898
▁끝나는	-11899
72	-11900
피를	-11901
▁하다가	-11902
▁시에	-11903
ch	-11904
과세	-11905
▁양의	-11906
▁것임을	-11907
▁만들어야	-11908
▁계속되고	-11909
매체	-11910
▁후퇴	-11911
▁기소됐다	-11912
부족	-11913
▁미중	-11914
▁직속	-11915
▁오사카	-11916
▁우리도	-11917
▁가라앉	-11918
▁170	-11919
▁조사는	-11920
구성	-11921
▁열악한	-11922
▁박용	-11923
▁유럽의	-11924
▁주민이	-11925
49	-11926
▁자녀를	-11927
적이었다	-11928
▁성립	-11929
기간이	-11930
▁수록	-11931
클래	-11932
▁인쇄	-11933
▁박찬	-11934
▁지속가능한	-11935
▁공개적으로	-11936
▁생각하면	-11937
학원	-11938
수입	-11939
▁삼성물산	-11940
▁있는가	-11941
억원에서	-11942
▁삼척	-11943
▁양해	-11944
▁기대되는	-11945
▁회담이	-11946
▁만나볼	-11947
▁이루는	-11948
▁제도다	-11949
▁관리가	-11950
▁이어가	-11951
▁군이	-11952
▁정우	-11953
▁노선을	-11954
▁재고	-11955
▁바라보	-11956
년간의	-11957
▁녹음	-11958
▁순위	-11959
▁존재한다	-11960
▁리얼	-11961
총회를	-11962
▁제공하기	-11963
▁전통시장	-11964
▁달걀	-11965
▁토크	-11966
▁경희	-11967
했다면	-11968
▁국세청	-11969
중국	-11970
▁해석된다	-11971
십시오	-11972
퍼시픽	-11973
▁타입	-11974
▁의견은	-11975
▁출발해	-11976
▁일본과	-11977
▁되돌아	-11978
▁공수	-11979
으려는	-11980
▁체납	-11981
▁캠핑	-11982
▁삼고	-11983
사로부터	-11984
▁광장	-11985
시의회	-11986
▁밖에도	-11987
▁컬렉	-11988
▁단일화	-11989
하였으며	-11990
▁종류의	-11991
▁미성	-11992
▁실시할	-11993
▁자기가	-11994
▁강화에	-11995
kg	-11996
▁일일이	-11997
▁모스크	-11998
화재	-11999
▁접견	-12000
▁잡을	-12001
임대주택	-12002
▁체계적인	-12003
▁우유	-12004
소리가	-12005
▁개발과	-12006
▁증진	-12007
▁하도급	-12008
▁다자	-12009
▁장르	-12010
▁싱글	-12011
▁손해를	-12012
▁스마트폰을	-12013
산업단지	-12014
▁더욱이	-12015
쓰고	-12016
▁밝히지	-12017
▁역사상	-12018
▁사형	-12019
▁주민의	-12020
▁명확한	-12021
▁민사	-12022
▁애로	-12023
▁불량	-12024
▁배제할	-12025
으론	-12026
▁물고	-12027
▁일어났다	-12028
▁김정일	-12029
행한	-12030
소리를	-12031
▁화장실	-12032
▁수출이	-12033
▁일어나는	-12034
인프라	-12035
▁병사	-12036
▁채취	-12037
▁챙긴	-12038
▁이리	-12039
▁돌아와	-12040
▁지사의	-12041
▁송파구	-12042
리던	-12043
▁아버지의	-12044
절차	-12045
▁연결해	-12046
▁사회에서	-12047
▁개인이	-12048
도서	-12049
예정	-12050
▁안정적	-12051
▁권위	-12052
황을	-12053
항에	-12054
▁차라리	-12055
▁선물을	-12056
품질	-12057
▁일명	-12058
▁정말로	-12059
▁자세로	-12060
▁국무장관	-12061
▁금품	-12062
▁MSI	-12063
▁탐방	-12064
▁자신은	-12065
▁기내	-12066
▁말하면	-12067
불을	-12068
▁대미	-12069
▁한시	-12070
▁숨어	-12071
▁갓	-12072
▁중독	-12073
대병원	-12074
▁국가를	-12075
▁신속히	-12076
▁귀를	-12077
▁그러니	-12078
▁전문기업	-12079
자격	-12080
▁스카	-12081
▁이곳은	-12082
내야	-12083
▁이진	-12084
▁미래의	-12085
▁타결	-12086
▁고등학생	-12087
▁급격한	-12088
▁대의	-12089
부르크	-12090
▁적폐청산	-12091
▁발매	-12092
▁계획에	-12093
▁당을	-12094
▁시키	-12095
▁이시	-12096
공간을	-12097
해수	-12098
▁내놓을	-12099
▁뮤직	-12100
으면서도	-12101
▁등록을	-12102
▁버려	-12103
▁통상임금	-12104
자마자	-12105
▁크다는	-12106
▁영등포구	-12107
▁강경화	-12108
▁떠나는	-12109
▁국채	-12110
▁우세	-12111
▁이해하고	-12112
▁편지를	-12113
▁이뤄져야	-12114
▁원칙에	-12115
배로	-12116
▁입장에	-12117
▁차량의	-12118
▁저자는	-12119
▁바이러스	-12120
▁지붕	-12121
▁회전	-12122
▁쉴	-12123
▁시간과	-12124
▁흑자	-12125
▁지는	-12126
심사를	-12127
▁자네	-12128
▁원인은	-12129
▁부회장의	-12130
상품을	-12131
▁멈춰	-12132
▁05	-12133
▁걸맞	-12134
▁치명	-12135
▁물량이	-12136
▁구축하고	-12137
▁차로	-12138
▁불합	-12139
▁숨지고	-12140
지기도	-12141
플라	-12142
▁높인	-12143
투표를	-12144
▁처방	-12145
▁자격을	-12146
▁펼칠	-12147
▁보도가	-12148
▁살아가는	-12149
모씨	-12150
▁일정이	-12151
▁더는	-12152
▁갖는다	-12153
▁한국투자증권	-12154
▁박탈	-12155
▁주된	-12156
▁우회	-12157
▁희생자	-12158
일으	-12159
▁한반	-12160
▁결성	-12161
▁LNG	-12162
블릿	-12163
▁행위가	-12164
▁기대감을	-12165
▁지사가	-12166
▁성분이	-12167
▁듯하다	-12168
▁해결하는	-12169
▁남북한	-12170
▁항구	-12171
▁권역	-12172
▁이해가	-12173
▁사이로	-12174
▁연초	-12175
▁개최한	-12176
▁관심도는	-12177
▁받으면	-12178
▁화제가	-12179
▁공주	-12180
▁어두운	-12181
▁걸리는	-12182
론은	-12183
▁질을	-12184
▁블룸	-12185
▁신재생에너지	-12186
▁불만	-12187
이용	-12188
▁워터	-12189
▁신기술	-12190
▁박경	-12191
컨대	-12192
국회	-12193
▁저의	-12194
▁시너지	-12195
업계의	-12196
▁수상한	-12197
▁의원에	-12198
▁발언이	-12199
특위	-12200
▁태백	-12201
정부는	-12202
▁인스타	-12203
▁변화는	-12204
▁배경을	-12205
▁국무위원장이	-12206
▁만하다	-12207
▁이색	-12208
기업에	-12209
기관으로	-12210
▁LTE	-12211
▁뜻이	-12212
▁시신을	-12213
▁업무에	-12214
크의	-12215
▁자신도	-12216
▁들어오는	-12217
하러	-12218
라를	-12219
▁인제	-12220
▁출범한	-12221
드립니다	-12222
▁전력을	-12223
▁이용하면	-12224
공모	-12225
▁속속	-12226
참모	-12227
▁창당	-12228
▁안성	-12229
▁대학원	-12230
▁오페라	-12231
▁장시간	-12232
▁홈쇼핑	-12233
▁픽	-12234
▁감수	-12235
▁유산	-12236
지니어링	-12237
속에서	-12238
▁LA	-12239
▁사업비	-12240
편으로	-12241
▁인상이	-12242
▁검찰총	-12243
▁7.	-12244
▁지시한	-12245
▁배터	-12246
▁레벨	-12247
가구가	-12248
▁외교부는	-12249
▁인근에서	-12250
창출	-12251
▁금품을	-12252
▁들어올	-12253
▁공유하는	-12254
▁동굴	-12255
▁박씨는	-12256
▁농도가	-12257
▁삭감	-12258
▁기록해	-12259
▁걸었다	-12260
▁크레	-12261
▁노동자의	-12262
▁원화	-12263
▁공급이	-12264
▁교육의	-12265
▁서울을	-12266
▁해볼	-12267
▁사장의	-12268
▁중학생	-12269
▁킬	-12270
민은	-12271
스팅	-12272
▁필요성이	-12273
▁삼성전자와	-12274
▁서쪽	-12275
▁CI	-12276
▁내세워	-12277
▁특성화	-12278
▁사냥	-12279
▁밖의	-12280
▁여론을	-12281
▁총무	-12282
▁알렉	-12283
▁업체의	-12284
▁동계	-12285
▁대상에서	-12286
▁스파	-12287
▁예능	-12288
▁위주의	-12289
▁것일	-12290
이었는데	-12291
▁스페셜	-12292
▁여섯	-12293
▁입술	-12294
▁까다	-12295
▁헌신	-12296
▁권익	-12297
▁순식간에	-12298
▁예방을	-12299
▁달린	-12300
▁성장성	-12301
▁남의	-12302
▁많을	-12303
▁내용과	-12304
▁교역	-12305
러스터	-12306
▁꽂	-12307
▁부하	-12308
▁남자가	-12309
▁소득이	-12310
▁개선과	-12311
▁지었다	-12312
▁후에도	-12313
▁바로잡	-12314
▁클린턴	-12315
▁언급하며	-12316
▁개를	-12317
▁그룹의	-12318
노인	-12319
▁있었을	-12320
▁항암	-12321
강의	-12322
▁늙	-12323
▁휴가를	-12324
▁판단에	-12325
▁끔	-12326
▁해설	-12327
비행	-12328
▁KAI	-12329
무기	-12330
오프	-12331
브를	-12332
보디아	-12333
라기	-12334
▁이끈	-12335
▁청주시	-12336
영이	-12337
▁미국으로	-12338
▁논술	-12339
▁걷어	-12340
▁자신감을	-12341
▁정리해	-12342
▁세련	-12343
▁수단	-12344
▁번호	-12345
할인	-12346
▁한데	-12347
▁편에	-12348
▁구성을	-12349
▁브랜드의	-12350
중앙회	-12351
▁일정한	-12352
▁회담에서	-12353
▁협회	-12354
▁기술의	-12355
▁수준이었다	-12356
미로	-12357
▁공범	-12358
발이	-12359
▁잘라	-12360
▁절대로	-12361
▁폴란드	-12362
▁미소	-12363
▁시흥	-12364
▁공연이	-12365
▁부상을	-12366
나를	-12367
▁상품은	-12368
▁약속한	-12369
▁관계부처	-12370
▁떠올랐다	-12371
▁구급	-12372
▁옵션	-12373
화장	-12374
▁was	-12375
▁하나도	-12376
▁사무처	-12377
월드컵	-12378
▁크루즈	-12379
랑이	-12380
▁노숙	-12381
캐피탈	-12382
▁전형적인	-12383
보겠습니다	-12384
▁더불어민주당은	-12385
▁정치자금	-12386
▁불러일으	-12387
▁공제	-12388
▁측면에서는	-12389
라비아	-12390
▁정황이	-12391
▁지원과	-12392
▁일하고	-12393
▁기득	-12394
▁과태료	-12395
99	-12396
▁나가겠다고	-12397
▁국회는	-12398
▁여성가족	-12399
페이스	-12400
▁낮춰	-12401
▁연평균	-12402
▁싶다는	-12403
▁종업	-12404
▁삼성의	-12405
▁브로	-12406
▁결정은	-12407
▁조기에	-12408
림의	-12409
▁업체들이	-12410
▁부산시는	-12411
▁아모레	-12412
▁다음에	-12413
▁생겼다	-12414
▁효과적인	-12415
▁붓	-12416
▁지도부	-12417
▁섹션으로	-12418
▁염려	-12419
▁잡지	-12420
▁모델이	-12421
▁대사는	-12422
▁발족	-12423
▁눈높	-12424
▁이천	-12425
▁쉐	-12426
▁연임	-12427
▁예의	-12428
▁도지사	-12429
▁돕고	-12430
▁저를	-12431
▁학계	-12432
▁한우	-12433
왕의	-12434
▁파이낸	-12435
▁밝힐	-12436
▁타협	-12437
▁아티스트	-12438
▁대비한	-12439
▁단말기	-12440
▁동성애	-12441
▁과제로	-12442
▁기억이	-12443
▁온실	-12444
▁헐	-12445
▁마음의	-12446
▁자신과	-12447
▁토요일	-12448
니의	-12449
▁정하고	-12450
독한	-12451
▁검사가	-12452
▁발언에	-12453
▁목표가가	-12454
▁쉽고	-12455
▁후보에	-12456
▁주도하는	-12457
▁과감	-12458
하셨	-12459
▁장중	-12460
▁나옵니다	-12461
▁경위를	-12462
▁부인했다	-12463
▁꿀	-12464
여름	-12465
▁됐고	-12466
▁씨에게	-12467
▁약물	-12468
▁하루에	-12469
▁프로그램으로	-12470
▁전망도	-12471
▁현수	-12472
▁일원	-12473
▁표정	-12474
ly	-12475
▁다루는	-12476
▁도시의	-12477
▁1991	-12478
▁덜어	-12479
▁좋고	-12480
▁펜스	-12481
RA	-12482
▁영원	-12483
▁토론을	-12484
▁객실	-12485
▁진상조사	-12486
▁군인	-12487
베르	-12488
▁지지율이	-12489
▁못하도록	-12490
마에	-12491
의약품안전	-12492
▁1992	-12493
▁늦은	-12494
▁어지	-12495
▁교육과정	-12496
▁역사적인	-12497
▁편리한	-12498
▁FC	-12499
▁주춤	-12500
버리	-12501
절차를	-12502
층지상	-12503
▁훌쩍	-12504
보상	-12505
▁특별법	-12506
원도	-12507
▁사죄	-12508
만원까지	-12509
▁효율적인	-12510
▁덒	-12511
▁개최된	-12512
▁엄격한	-12513
ce	-12514
▁대응하기	-12515
▁관악	-12516
▁요구할	-12517
나가는	-12518
▁얇	-12519
▁수준에서	-12520
▁파키스탄	-12521
▁기장	-12522
▁계속될	-12523
수출	-12524
▁당기순	-12525
▁취하고	-12526
▁대한민국을	-12527
▁애플리케이션	-12528
▁안전보	-12529
광역시	-12530
▁장례식	-12531
스트리트	-12532
▁1993	-12533
▁덤	-12534
▁뉴욕타임	-12535
▁보도합니다	-12536
단체가	-12537
▁한인	-12538
▁다짐했다	-12539
▁채로	-12540
▁오로지	-12541
▁가로막	-12542
▁추첨을	-12543
▁저가	-12544
▁달라는	-12545
▁이순	-12546
▁적법	-12547
▁비교해보면	-12548
▁시켜	-12549
▁의학	-12550
▁작가가	-12551
▁고백	-12552
▁쟁점	-12553
▁다카	-12554
▁의식을	-12555
▁본다고	-12556
▁침입	-12557
▁그릇	-12558
▁도발을	-12559
▁말아야	-12560
▁풀려	-12561
소비자	-12562
▁파트너십	-12563
▁원정	-12564
▁상당수	-12565
▁풍경	-12566
▁해상에서	-12567
▁확정했다	-12568
케미칼	-12569
▁논평	-12570
▁현지시간	-12571
안으로	-12572
회담을	-12573
▁좁은	-12574
▁제도적	-12575
남용	-12576
▁메리	-12577
▁단체는	-12578
▁유세	-12579
▁적혀	-12580
▁태블릿	-12581
덕봞	-12582
▁적용했다	-12583
▁LS	-12584
▁야당이	-12585
▁버튼	-12586
▁원에	-12587
▁시원한	-12588
지던	-12589
▁수료	-12590
▁기여한	-12591
▁퀴	-12592
▁고래	-12593
▁세우	-12594
▁내세운	-12595
▁국악	-12596
▁결과다	-12597
상황을	-12598
본을	-12599
▁나갔다	-12600
▁물려	-12601
▁리조트	-12602
주일	-12603
▁신입사	-12604
▁구경	-12605
▁연체	-12606
▁감옥	-12607
▁권영	-12608
▁미용	-12609
▁투자에	-12610
▁문득	-12611
▁쌓여	-12612
▁해왔다	-12613
공동체	-12614
▁않으며	-12615
▁정신이	-12616
▁자랑하는	-12617
▁청장은	-12618
▁심의를	-12619
▁조속한	-12620
▁주당	-12621
▁지적에	-12622
▁뜻한다	-12623
▁연락을	-12624
▁일과	-12625
▁해주는	-12626
니지	-12627
▁지방의	-12628
▁가슴을	-12629
▁놓인	-12630
▁징계를	-12631
▁방역	-12632
▁상태였다	-12633
쾌한	-12634
▁상징하는	-12635
팀장	-12636
▁천안함	-12637
▁사직	-12638
▁점유율	-12639
▁행위에	-12640
▁공부를	-12641
▁난다	-12642
▁MOU	-12643
▁언론은	-12644
▁사진은	-12645
▁뿐이었다	-12646
책이	-12647
▁서울에	-12648
▁주장한다	-12649
▁위의	-12650
▁소개한다	-12651
아를	-12652
해준다	-12653
▁중소벤처기업부	-12654
88	-12655
▁증거가	-12656
▁애국	-12657
기업을	-12658
▁청계	-12659
담배	-12660
▁늘릴	-12661
수준을	-12662
▁실시하는	-12663
▁계획은	-12664
기부	-12665
▁수성	-12666
▁강정	-12667
ap	-12668
▁수단으로	-12669
▁도청	-12670
철을	-12671
▁돌아왔다	-12672
업이	-12673
수행	-12674
▁충주	-12675
▁대표적이다	-12676
▁학생을	-12677
▁양국의	-12678
▁on	-12679
▁틀림	-12680
▁Z	-12681
▁관측도	-12682
▁관계에	-12683
▁캄보디아	-12684
▁공매	-12685
▁줬다	-12686
▁척추	-12687
▁국고	-12688
▁적힌	-12689
▁얼어	-12690
▁알았다	-12691
병원에서	-12692
발전을	-12693
▁본선	-12694
▁썰	-12695
▁분석하고	-12696
▁녀석이	-12697
▁걸로	-12698
▁살해한	-12699
▁전했습니다	-12700
석으로	-12701
▁인정하지	-12702
▁청정	-12703
▁선정한	-12704
동원	-12705
지연	-12706
▁유학	-12707
▁사례는	-12708
▁준비해	-12709
▁아일랜드	-12710
개는	-12711
▁불과한	-12712
지휘	-12713
▁주의를	-12714
▁나가겠다	-12715
un	-12716
▁화폐	-12717
시켜야	-12718
▁충북도	-12719
▁대대적인	-12720
▁음반	-12721
집이	-12722
▁해외에서	-12723
▁인스타그램	-12724
▁남북이	-12725
▁공급을	-12726
돈을	-12727
▁교수를	-12728
▁하이브리드	-12729
▁뚝	-12730
▁보류	-12731
▁연구소	-12732
▁자유로운	-12733
▁도주	-12734
▁폭염이	-12735
▁달간	-12736
▁전체적인	-12737
주의적	-12738
▁핵심은	-12739
▁소방관	-12740
비드	-12741
▁동탄	-12742
▁만료	-12743
▁판단하고	-12744
▁부가	-12745
▁BNK	-12746
▁경영권	-12747
▁블룸버그	-12748
어에	-12749
▁그레이	-12750
과장	-12751
▁여성들이	-12752
▁지적을	-12753
▁제국	-12754
왔고	-12755
▁부를	-12756
▁노예	-12757
선수권	-12758
▁민관	-12759
▁무게를	-12760
▁전쟁이	-12761
▁팀을	-12762
삼성	-12763
테일	-12764
▁결과적으로	-12765
▁취지의	-12766
▁해산	-12767
▁트위터에	-12768
채용	-12769
기에서	-12770
론가	-12771
▁번에	-12772
▁꽉	-12773
▁참고로	-12774
▁오스트리아	-12775
▁과다	-12776
업계는	-12777
▁협동조합	-12778
념을	-12779
▁정교	-12780
▁피하기	-12781
▁김윤	-12782
▁목록	-12783
▁휴식을	-12784
▁청춘	-12785
▁모습에	-12786
청원	-12787
▁포스트	-12788
▁실명	-12789
▁활성화에	-12790
▁등산	-12791
▁커지는	-12792
▁성격이	-12793
가야	-12794
▁양천	-12795
▁연기를	-12796
▁왠	-12797
▁조사결과	-12798
연했다	-12799
▁한국거래	-12800
▁문화체육관광부	-12801
▁주민등록	-12802
▁인문학	-12803
▁혁신적인	-12804
▁마케팅을	-12805
▁투자해	-12806
▁차분	-12807
▁부사장	-12808
▁사정이	-12809
사령부	-12810
▁실시한다고	-12811
연대는	-12812
센터의	-12813
전망	-12814
됐기	-12815
협동조합	-12816
▁낙관	-12817
CD	-12818
▁설명했습니다	-12819
▁해수욕	-12820
보드	-12821
▁국제적	-12822
▁식품의약품안전	-12823
▁간편하게	-12824
궐선거	-12825
▁줄곧	-12826
▁긴밀히	-12827
▁부모님	-12828
▁이집트	-12829
▁전달할	-12830
▁임금을	-12831
▁위협을	-12832
▁조사해	-12833
▁뒤따	-12834
▁이후로	-12835
방으로	-12836
▁금리가	-12837
▁샀	-12838
▁없는데	-12839
협력을	-12840
▁통합을	-12841
▁테슬	-12842
▁있기를	-12843
▁이현	-12844
▁읽는	-12845
습기	-12846
오롱	-12847
▁철저하게	-12848
▁놀라운	-12849
편에	-12850
▁입맛	-12851
▁리스트	-12852
업소	-12853
▁행보를	-12854
▁백신	-12855
▁침대	-12856
▁끝나고	-12857
▁요구하며	-12858
보고서	-12859
▁중점을	-12860
셔야	-12861
▁부끄러	-12862
▁알려졌습니다	-12863
동부	-12864
▁강화하기	-12865
방울	-12866
▁어렵고	-12867
▁프라	-12868
▁처한	-12869
▁심상	-12870
▁커진	-12871
왔습니다	-12872
▁문자메시	-12873
▁보훈	-12874
▁해당한다	-12875
▁역사와	-12876
▁-	-12877
▁밝히는	-12878
▁없다면	-12879
▁제조업체	-12880
▁전국이	-12881
▁이창	-12882
▁솔루션을	-12883
▁국어	-12884
▁서로의	-12885
벌이	-12886
▁뜻하는	-12887
▁대림	-12888
▁써야	-12889
▁휴대전	-12890
▁지지하는	-12891
▁주재로	-12892
▁사태에	-12893
바겐	-12894
▁펠	-12895
▁밴드	-12896
▁시점에서	-12897
▁피를	-12898
▁못했다고	-12899
▁일할	-12900
▁자외	-12901
차와	-12902
에겐	-12903
▁증대	-12904
▁탕	-12905
▁송영무	-12906
▁수산물	-12907
▁be	-12908
▁영업을	-12909
▁승용	-12910
▁언론이	-12911
동으로	-12912
▁현실적으로	-12913
▁렉	-12914
투를	-12915
▁햄	-12916
▁실어	-12917
▁작품이	-12918
테이	-12919
체제를	-12920
▁진도	-12921
▁세입	-12922
▁늘면서	-12923
▁아들을	-12924
적이라고	-12925
▁바뀌었다	-12926
▁대회를	-12927
명씩	-12928
▁달콤	-12929
▁복수	-12930
▁공소	-12931
▁대표단	-12932
▁잉글	-12933
▁시신	-12934
▁이노	-12935
▁시골	-12936
▁게이트	-12937
▁입었다	-12938
▁적용하는	-12939
▁직원들은	-12940
▁각오	-12941
가루	-12942
▁마련된다	-12943
▁표기	-12944
▁회의에	-12945
▁인텔	-12946
▁달라진	-12947
혜택	-12948
▁중얼	-12949
▁주택을	-12950
▁출제	-12951
▁UN	-12952
▁끝날	-12953
▁목표주가의	-12954
▁자유한국당이	-12955
눈에	-12956
▁112	-12957
▁정권을	-12958
인트를	-12959
▁전달하는	-12960
▁협업을	-12961
오스	-12962
▁많다는	-12963
▁줘	-12964
▁리비아	-12965
▁기다리는	-12966
졌기	-12967
오던	-12968
▁투자자들의	-12969
▁고지	-12970
▁다시는	-12971
하를	-12972
▁명문	-12973
▁승계	-12974
▁질문에는	-12975
▁효율적으로	-12976
▁백두	-12977
▁나오면	-12978
▁중국산	-12979
▁국장	-12980
▁여전	-12981
▁키움	-12982
▁시장과	-12983
인구	-12984
▁아이들에게	-12985
▁가정의	-12986
팅을	-12987
포지	-12988
▁구속된	-12989
약한	-12990
▁시작되는	-12991
▁군민	-12992
▁마련해야	-12993
▁매뉴얼	-12994
▁되살	-12995
▁공시했다	-12996
하키	-12997
▁예상하고	-12998
▁사교육	-12999
에다	-13000
▁목표는	-13001
▁김무	-13002
지노	-13003
생은	-13004
▁끔찍	-13005
▁허락	-13006
▁장기적으로	-13007
▁사망자	-13008
희망	-13009
▁DM	-13010
▁돌렸다	-13011
▁입니다	-13012
▁일으켜	-13013
시험을	-13014
▁고혈압	-13015
▁하려고	-13016
▁포도	-13017
▁전락	-13018
▁분야는	-13019
움과	-13020
▁사용이	-13021
▁피해는	-13022
▁신도	-13023
▁스트리	-13024
▁기준금리	-13025
▁시설물	-13026
77	-13027
▁솔직히	-13028
쳤다고	-13029
▁모욕	-13030
▁자신들이	-13031
▁호기	-13032
하긴	-13033
▁김동철	-13034
▁학교가	-13035
테르	-13036
▁소지	-13037
▁회고	-13038
▁가슴에	-13039
▁소개하는	-13040
▁농축	-13041
▁최고위원은	-13042
▁고양이	-13043
▁당시의	-13044
▁트랙	-13045
▁김준	-13046
▁피아노	-13047
▁오브	-13048
▁파란	-13049
▁착수했다	-13050
주면	-13051
▁소재를	-13052
▁아끼지	-13053
▁부모가	-13054
잖아요	-13055
▁혼란을	-13056
사관	-13057
▁의하면	-13058
▁원장이	-13059
마이	-13060
어링	-13061
▁임무를	-13062
▁다툼	-13063
▁압축	-13064
▁시야	-13065
▁대주주	-13066
▁페르	-13067
▁살펴보고	-13068
▁정서	-13069
▁자이	-13070
▁커넥	-13071
▁증가에	-13072
▁포용	-13073
▁타이틀	-13074
인한	-13075
▁설치를	-13076
▁새마을	-13077
▁초부터	-13078
▁쓰이는	-13079
▁경험과	-13080
▁인사들이	-13081
▁법사	-13082
▁벨기에	-13083
전자가	-13084
코는	-13085
▁겪었다	-13086
▁헤드	-13087
▁소중	-13088
▁폭을	-13089
▁총선에서	-13090
▁시민들에게	-13091
▁주변을	-13092
44	-13093
▁일상생활	-13094
본부가	-13095
수술	-13096
▁기상청	-13097
▁치료제	-13098
져서	-13099
▁한두	-13100
릅니다	-13101
▁관여한	-13102
▁이광	-13103
▁양양	-13104
▁나고	-13105
▁로버트	-13106
▁한옥	-13107
▁자체적으로	-13108
단장	-13109
▁웨이	-13110
▁플러스	-13111
▁됐다는	-13112
▁부산에서	-13113
▁부검	-13114
감시	-13115
▁손이	-13116
▁지도자	-13117
등이	-13118
여자	-13119
▁오빠	-13120
강도	-13121
▁신인	-13122
경비	-13123
▁그런데도	-13124
▁EM	-13125
▁성북	-13126
▁중산	-13127
▁이슈가	-13128
▁취한	-13129
▁매물	-13130
▁상을	-13131
▁직원은	-13132
▁추징	-13133
수원	-13134
▁집중할	-13135
▁주부	-13136
▁근로기준	-13137
▁강조했습니다	-13138
교의	-13139
▁건전	-13140
회사인	-13141
▁정도였다	-13142
▁사용자가	-13143
▁반문	-13144
▁볼턴	-13145
▁위상을	-13146
▁명백한	-13147
▁핏	-13148
▁칼럼	-13149
▁넘기	-13150
도어	-13151
카를	-13152
▁물러나	-13153
▁패럴림픽	-13154
▁휘발	-13155
밖에도	-13156
▁han	-13157
▁법원행정처	-13158
▁구속기소	-13159
▁합산	-13160
▁해온	-13161
▁하기도	-13162
▁반입	-13163
창조	-13164
68	-13165
▁신고가	-13166
▁끝나면	-13167
난다	-13168
▁해소를	-13169
리라고	-13170
▁공공부문	-13171
▁보수적인	-13172
▁지났	-13173
▁일어났	-13174
▁건강에	-13175
▁실습	-13176
▁머물러	-13177
신문은	-13178
▁사장을	-13179
▁박지원	-13180
▁헬기	-13181
▁기무사	-13182
▁ES	-13183
▁업체에	-13184
▁밀접	-13185
▁등장한	-13186
▁만만치	-13187
▁흘러나	-13188
▁모친	-13189
▁탄소	-13190
▁마켓	-13191
▁업계는	-13192
▁일본인	-13193
▁주총	-13194
▁그래픽	-13195
▁중단을	-13196
공단은	-13197
▁개정안이	-13198
▁북방	-13199
▁인정했다	-13200
▁시행하고	-13201
▁ICBM	-13202
▁바라보며	-13203
▁본다면	-13204
▁알고리즘	-13205
량과	-13206
▁교통안전	-13207
▁조처를	-13208
▁공직선거법	-13209
▁대다수	-13210
제철	-13211
▁불렀다	-13212
▁행사로	-13213
▁공표	-13214
▁소나	-13215
▁사라졌다	-13216
시설과	-13217
난을	-13218
▁몰랐다	-13219
▁이외에	-13220
▁지켜보	-13221
▁사퇴를	-13222
해요	-13223
▁판단한	-13224
▁학생의	-13225
▁신성장	-13226
▁금액은	-13227
▁말하자	-13228
▁총기	-13229
▁비로소	-13230
▁전통적인	-13231
▁전경	-13232
▁거지	-13233
타이	-13234
▁고성능	-13235
▁업계에서는	-13236
▁한복	-13237
▁인물이	-13238
▁클릭	-13239
▁주의가	-13240
▁걱정이	-13241
▁조성해	-13242
▁차등	-13243
▁알렸다	-13244
자리를	-13245
▁돌아갈	-13246
▁높을	-13247
▁승부	-13248
▁탄압	-13249
▁승무원	-13250
▁동쪽	-13251
▁아이는	-13252
▁설치한	-13253
▁통과한	-13254
▁경기에	-13255
▁야당은	-13256
▁메달	-13257
▁랜	-13258
▁빚을	-13259
▁차가운	-13260
▁인정하는	-13261
▁DNA	-13262
▁아모레퍼시픽	-13263
▁들지	-13264
▁차량은	-13265
▁내면	-13266
▁합참	-13267
▁이번에도	-13268
▁넣은	-13269
차피	-13270
▁변호사가	-13271
씨도	-13272
▁사측	-13273
▁웃돌	-13274
▁입에	-13275
로나	-13276
▁페미니	-13277
초를	-13278
▁줄기세포	-13279
▁전교조	-13280
▁정무수석	-13281
▁낮게	-13282
▁있거나	-13283
▁직원의	-13284
▁신청하면	-13285
▁김창	-13286
는지는	-13287
▁논의하고	-13288
▁무서운	-13289
▁에너지를	-13290
▁코미	-13291
▁마련하는	-13292
▁좋다고	-13293
▁만인	-13294
티아	-13295
▁김은	-13296
▁배운	-13297
▁적용되는	-13298
밀한	-13299
▁차지한	-13300
▁관계자가	-13301
▁건축물	-13302
▁성남시	-13303
▁취약한	-13304
ri	-13305
▁화를	-13306
유지	-13307
▁추진하기로	-13308
▁이용객	-13309
▁진에	-13310
년동안	-13311
▁뒤에도	-13312
▁성실	-13313
▁행진	-13314
▁장소를	-13315
▁해지	-13316
▁무지	-13317
▁해경	-13318
▁유력한	-13319
▁원격	-13320
st	-13321
▁키우	-13322
르몬	-13323
▁건설을	-13324
▁년간	-13325
▁바이어	-13326
▁만나고	-13327
회의는	-13328
▁분석됐다	-13329
제조	-13330
▁의원에게	-13331
▁깔끔	-13332
▁심각하게	-13333
▁일요일	-13334
▁무리한	-13335
▁반납	-13336
▁환자를	-13337
▁묻고	-13338
러는	-13339
▁취업자	-13340
▁카카오뱅크	-13341
개와	-13342
해지	-13343
▁예산은	-13344
▁양국이	-13345
▁있겠지만	-13346
▁전문성을	-13347
▁기자간담회에서	-13348
▁시간당	-13349
▁실린	-13350
▁BB	-13351
▁수제	-13352
공항공	-13353
가게	-13354
▁넌	-13355
▁지니고	-13356
학부	-13357
▁달성했다	-13358
▁넘은	-13359
▁아파	-13360
▁전지	-13361
플래	-13362
▁연구에	-13363
▁된다며	-13364
▁냉동	-13365
▁힘으로	-13366
인인	-13367
지역은	-13368
▁이준	-13369
▁친구가	-13370
▁주장도	-13371
▁시작된다	-13372
력도	-13373
▁맡는다	-13374
▁나가고	-13375
▁마이클	-13376
▁첫번째	-13377
▁콜라	-13378
▁않자	-13379
품으로	-13380
전담	-13381
▁것이라면서	-13382
곡을	-13383
▁선고받았다	-13384
▁실리콘	-13385
▁아닌지	-13386
▁윌리	-13387
▁선언을	-13388
윤리	-13389
▁06	-13390
▁진행되며	-13391
▁내부의	-13392
▁확대와	-13393
▁남짓	-13394
▁일대에	-13395
▁면밀히	-13396
▁오케스트	-13397
▁메가	-13398
▁쏠리고	-13399
추어	-13400
▁좋겠다고	-13401
▁공백	-13402
▁업무보고	-13403
▁상해	-13404
▁환경에서	-13405
▁박물관	-13406
▁학생과	-13407
▁파일	-13408
▁리서치	-13409
▁지방분권	-13410
▁공개할	-13411
들만	-13412
▁임종석	-13413
▁더이상	-13414
▁농장	-13415
▁영업이익이	-13416
▁확보에	-13417
▁어디에	-13418
연료	-13419
▁주소	-13420
▁비준	-13421
▁이렇다	-13422
▁편안한	-13423
커피	-13424
미르	-13425
▁한전	-13426
▁고객은	-13427
97	-13428
▁실정이다	-13429
락이	-13430
▁학교는	-13431
▁오면	-13432
▁떨어지고	-13433
개입	-13434
머리	-13435
▁알레	-13436
▁발견했다	-13437
98	-13438
학술	-13439
▁살균	-13440
로와	-13441
▁번의	-13442
▁해변	-13443
▁밀어붙	-13444
▁개발이	-13445
▁일축	-13446
▁주인이	-13447
스토어	-13448
▁이럴	-13449
▁남을	-13450
비한	-13451
▁받아들이지	-13452
항쟁	-13453
▁기어	-13454
▁할까	-13455
▁스토리	-13456
▁생각도	-13457
신탁	-13458
▁전당대회	-13459
▁찍고	-13460
▁00	-13461
▁전달한	-13462
▁신고했다	-13463
▁지원했다	-13464
▁표현한	-13465
▁전설	-13466
천만원을	-13467
▁빼돌	-13468
▁방식은	-13469
▁미사일을	-13470
▁수행할	-13471
둥이	-13472
▁교육부가	-13473
▁프로모션을	-13474
▁김문	-13475
▁촡	-13476
▁편하게	-13477
▁너희	-13478
▁검사는	-13479
▁wh	-13480
42	-13481
▁여기는	-13482
▁고의	-13483
기업으로	-13484
대고	-13485
▁낚시	-13486
▁자의	-13487
▁현지시각	-13488
플루엔	-13489
론에	-13490
▁아저	-13491
림은	-13492
▁길은	-13493
점검을	-13494
▁진술했다	-13495
▁입양	-13496
▁사업과	-13497
▁큑	-13498
▁일부러	-13499
▁이룰	-13500
이노베이션	-13501
▁상원의	-13502
▁조치로	-13503
합을	-13504
▁ᄀ	-13505
▁제시하고	-13506
▁도시를	-13507
▁확산을	-13508
▁메시지	-13509
국대	-13510
▁희귀	-13511
▁빛이	-13512
▁이익이	-13513
렉시	-13514
▁김관	-13515
▁연애	-13516
상도	-13517
▁어머니가	-13518
장학	-13519
▁띈	-13520
▁대조	-13521
증은	-13522
▁나타난다	-13523
▁실시해	-13524
▁그늘	-13525
▁국민은	-13526
▁넓혀	-13527
효과가	-13528
▁꼼꼼히	-13529
▁부산항	-13530
▁머물고	-13531
▁상식	-13532
하진	-13533
▁엎	-13534
▁해법을	-13535
▁강력하게	-13536
사회를	-13537
▁무덤	-13538
▁국정감사에서	-13539
▁바가	-13540
제이	-13541
▁교장	-13542
▁대륙간탄도미사일	-13543
체와	-13544
째를	-13545
▁출석해	-13546
회의가	-13547
ul	-13548
프리카	-13549
▁중심에	-13550
▁아나운	-13551
▁모스크바	-13552
▁줄어드는	-13553
▁가능하다는	-13554
▁넘긴	-13555
▁공관	-13556
▁교섭단체	-13557
▁모양새다	-13558
당국	-13559
▁야기	-13560
회사가	-13561
▁김도	-13562
DI	-13563
▁요건을	-13564
았기	-13565
▁정세균	-13566
▁개최하고	-13567
▁약세를	-13568
▁행위는	-13569
▁바퀴	-13570
▁가자	-13571
▁치안	-13572
원자력	-13573
▁용산구	-13574
▁무엇인가	-13575
값을	-13576
▁수신	-13577
▁어차피	-13578
개소	-13579
▁둔화	-13580
▁길로	-13581
▁악성	-13582
▁코오롱	-13583
▁투자자들이	-13584
정책에	-13585
▁국민의당은	-13586
▁딸을	-13587
▁취지	-13588
방식	-13589
임금을	-13590
▁끝났	-13591
린은	-13592
▁내년에는	-13593
▁이야기는	-13594
사다	-13595
▁각계	-13596
▁월스트리트	-13597
▁우즈	-13598
현이	-13599
▁금융위기	-13600
과열	-13601
강화	-13602
▁근거를	-13603
▁명에	-13604
▁감동	-13605
▁극대화	-13606
레는	-13607
▁다르지	-13608
▁통신은	-13609
▁스승	-13610
▁참석할	-13611
▁맺었다	-13612
▁상인	-13613
▁일일	-13614
▁뇌물을	-13615
▁유학생	-13616
▁최선	-13617
▁콤	-13618
▁때와	-13619
▁완성차	-13620
▁속한	-13621
국적	-13622
▁성균	-13623
▁노력해	-13624
페스티벌	-13625
▁소아	-13626
▁눈동	-13627
▁입지를	-13628
▁어느새	-13629
▁신한은행	-13630
▁진단을	-13631
▁아침에	-13632
▁참석한다	-13633
▁것이기	-13634
고리	-13635
▁등에게	-13636
▁밭	-13637
▁8.	-13638
▁장점이	-13639
▁메신저	-13640
▁역사가	-13641
▁JT	-13642
▁국가와	-13643
▁안전하고	-13644
▁대목이다	-13645
▁담배를	-13646
장이나	-13647
▁노사정	-13648
▁현안을	-13649
▁탔	-13650
▁개발하는	-13651
▁국영	-13652
나요	-13653
▁놀란	-13654
카는	-13655
▁사실에	-13656
마일	-13657
▁여행객	-13658
보복	-13659
모터	-13660
▁마구	-13661
층으로	-13662
▁2025	-13663
▁투자자들은	-13664
▁룰	-13665
대회에	-13666
▁드러낸	-13667
▁마련에	-13668
▁부적절한	-13669
망에	-13670
▁명동	-13671
▁활동하고	-13672
PS	-13673
▁시카고	-13674
▁금융기관	-13675
커녕	-13676
▁머리가	-13677
지수는	-13678
▁목적이	-13679
▁사외이사	-13680
효과를	-13681
▁교류를	-13682
▁알뜰	-13683
공원에서	-13684
▁방남	-13685
▁잘못을	-13686
▁360	-13687
▁명의로	-13688
에요	-13689
▁세균	-13690
관계자는	-13691
▁화답	-13692
▁불만이	-13693
브리핑	-13694
▁동해안	-13695
▁토로했다	-13696
▁사라져	-13697
▁딸이	-13698
▁있었다며	-13699
▁텍사	-13700
▁무의	-13701
▁삶이	-13702
▁증액	-13703
▁넘었다	-13704
▁남지	-13705
▁날인	-13706
▁견해를	-13707
▁여당이	-13708
플랫폼	-13709
▁개최되는	-13710
리우	-13711
▁산재	-13712
▁모순	-13713
▁부자	-13714
상이다	-13715
▁기저	-13716
▁YTN	-13717
▁that	-13718
▁진출한	-13719
▁설립을	-13720
▁신용등급	-13721
업은	-13722
▁아파트는	-13723
96	-13724
▁계속되는	-13725
채권	-13726
▁히로	-13727
▁판매량이	-13728
▁다뤄	-13729
관리에	-13730
▁수사의	-13731
▁블록체	-13732
▁보충	-13733
업체에	-13734
▁반포	-13735
속으로	-13736
▁의외	-13737
▁한국노총	-13738
▁반짝	-13739
▁정면	-13740
▁맛과	-13741
▁촉발	-13742
형과	-13743
▁남성은	-13744
▁내려다	-13745
▁취해	-13746
▁달에	-13747
단위	-13748
▁형평	-13749
▁돌아가는	-13750
▁머릿	-13751
공천	-13752
▁파이낸셜	-13753
▁연구위원은	-13754
▁여자가	-13755
▁싹	-13756
어드	-13757
▁거칠	-13758
카메라	-13759
▁사실도	-13760
▁한다면서	-13761
▁휘두	-13762
▁산란	-13763
▁심하게	-13764
▁자율주행차	-13765
동포	-13766
▁화산	-13767
▁묘사	-13768
▁발언하고	-13769
▁금방	-13770
▁구리	-13771
▁화제	-13772
▁나가야	-13773
▁이대로	-13774
공화국	-13775
▁아가	-13776
▁상승에	-13777
강을	-13778
스도	-13779
▁착한	-13780
▁눈앞에	-13781
▁위반한	-13782
▁지역과	-13783
▁정책으로	-13784
▁너는	-13785
▁박진	-13786
소설	-13787
카와	-13788
▁봅니다	-13789
▁내기	-13790
▁기록할	-13791
▁향했다	-13792
▁흐름이	-13793
▁가늠	-13794
▁구두	-13795
▁실험을	-13796
▁참배	-13797
▁추진한	-13798
▁이보다	-13799
▁대상이다	-13800
카드는	-13801
▁재가	-13802
▁최재	-13803
▁가결	-13804
▁선거가	-13805
▁해를	-13806
▁기업가	-13807
▁연중	-13808
▁제조사	-13809
▁세븐	-13810
수엘	-13811
▁자민	-13812
작은	-13813
▁정기적으로	-13814
중소	-13815
▁안드로	-13816
▁신청했다	-13817
감치	-13818
▁세상이	-13819
되었으며	-13820
op	-13821
▁DB	-13822
▁사단	-13823
▁부산지역	-13824
▁유상증	-13825
적일	-13826
▁두드	-13827
▁되어야	-13828
▁탁월한	-13829
▁국토교통부는	-13830
▁모두에게	-13831
▁사무총장은	-13832
▁이방	-13833
▁쏘아	-13834
지사는	-13835
▁대회에서	-13836
▁상하	-13837
과대학	-13838
▁하여금	-13839
▁환자는	-13840
▁덕분	-13841
▁고집	-13842
▁마디	-13843
▁하청	-13844
▁인정한	-13845
▁외교장관	-13846
▁각각의	-13847
▁만남을	-13848
▁정진	-13849
▁부가가	-13850
▁은평	-13851
ag	-13852
밀하게	-13853
▁삼성이	-13854
구매	-13855
▁고창	-13856
▁한라	-13857
▁바쁜	-13858
▁발표한다	-13859
▁인정받아	-13860
▁산은	-13861
▁음식점	-13862
▁무대를	-13863
▁국가에	-13864
▁황제	-13865
▁대학이	-13866
형에	-13867
▁대개	-13868
▁간판	-13869
▁아스	-13870
▁과정은	-13871
▁단호	-13872
억원대	-13873
▁유한	-13874
▁받았던	-13875
심에	-13876
▁대항	-13877
쳤고	-13878
▁제한하는	-13879
령은	-13880
▁여야는	-13881
▁보이콧	-13882
▁근본적으로	-13883
▁그렇습니다	-13884
▁출품	-13885
분할	-13886
분은	-13887
▁궐	-13888
폐기	-13889
영의	-13890
▁논의하는	-13891
▁대공	-13892
▁여부와	-13893
▁신도시	-13894
하므로	-13895
▁과징금	-13896
▁한미동맹	-13897
▁국공	-13898
▁퀄	-13899
▁공산당	-13900
▁나라는	-13901
토지	-13902
▁전투기	-13903
기간에	-13904
▁모양의	-13905
▁매트	-13906
▁돌파했다	-13907
▁환승	-13908
렌즈	-13909
▁건물이	-13910
▁키우고	-13911
▁차례에	-13912
▁프로야구	-13913
▁인원	-13914
사업과	-13915
▁사회관계	-13916
현의	-13917
▁공판	-13918
▁개념을	-13919
▁계획입니다	-13920
▁않았다며	-13921
▁교사는	-13922
▁개인적으로	-13923
▁만전을	-13924
▁오가는	-13925
치다	-13926
▁믿는	-13927
아서	-13928
▁기술개발	-13929
▁과거에	-13930
▁변신	-13931
▁외출	-13932
▁후손	-13933
▁어릴	-13934
▁투명한	-13935
위해	-13936
▁성장과	-13937
▁변화와	-13938
▁던진	-13939
▁역동	-13940
▁중앙선거	-13941
▁다가가	-13942
▁비용은	-13943
▁바이러	-13944
▁바꾸고	-13945
▁상원	-13946
▁발레	-13947
▁재편	-13948
▁IBK	-13949
▁이벤트도	-13950
▁문화적	-13951
▁수련	-13952
▁피해자를	-13953
의의	-13954
▁중단하고	-13955
▁한국당의	-13956
PA	-13957
됐는데	-13958
▁강의를	-13959
면허	-13960
으로서는	-13961
콜릿	-13962
▁좀처럼	-13963
▁동안의	-13964
▁집필	-13965
▁나름대로	-13966
▁목표가	-13967
▁협정	-13968
▁구성했다	-13969
▁세력이	-13970
▁벌어지는	-13971
▁벌어지고	-13972
찌감치	-13973
▁자본주의	-13974
▁사옥	-13975
▁다들	-13976
▁삐	-13977
호와	-13978
▁서로를	-13979
▁사면	-13980
▁가기	-13981
▁내려가	-13982
▁드러내고	-13983
▁SC	-13984
▁코인	-13985
▁노릇	-13986
▁좌절	-13987
지급	-13988
내용	-13989
▁참가하는	-13990
▁당정	-13991
▁은행의	-13992
▁용이	-13993
▁시민과	-13994
▁김무성	-13995
▁판단할	-13996
▁피가	-13997
▁저런	-13998
▁어머니는	-13999
▁강세	-14000
▁정경	-14001
▁한의	-14002
▁장인	-14003
▁귀농	-14004
▁낙하	-14005
증권은	-14006
▁검토를	-14007
▁명단을	-14008
▁각국의	-14009
▁물량을	-14010
▁미성년	-14011
▁똑같이	-14012
▁프랑스의	-14013
▁관계자들은	-14014
▁촬영한	-14015
▁기자간담회를	-14016
시절	-14017
▁박재	-14018
▁기사는	-14019
▁다큐멘	-14020
▁안전보장이	-14021
▁창원시	-14022
▁매출액은	-14023
▁경부	-14024
▁맞물려	-14025
▁있었으나	-14026
▁되었고	-14027
52	-14028
▁드디어	-14029
▁분야별	-14030
마블	-14031
▁전달하고	-14032
▁레저	-14033
▁얹	-14034
▁연이어	-14035
▁베네수엘	-14036
▁인가	-14037
공학과	-14038
▁이거	-14039
모집	-14040
▁센트	-14041
▁약세	-14042
선물	-14043
▁보상을	-14044
▁팔레스타인	-14045
▁쌍용차	-14046
▁젤	-14047
침해	-14048
▁준비에	-14049
▁1950	-14050
▁살기	-14051
▁돈으로	-14052
▁인사말을	-14053
▁밤에	-14054
▁기자의	-14055
▁사무실에서	-14056
저우	-14057
텃밭	-14058
▁비서실장	-14059
▁이득	-14060
▁서류를	-14061
▁노려	-14062
▁알았	-14063
산업을	-14064
▁봉사활동을	-14065
▁졸업한	-14066
▁지나면	-14067
▁오늘의	-14068
▁프로그램이다	-14069
▁견디	-14070
▁약화	-14071
먹는	-14072
▁시한	-14073
▁데일리	-14074
디움	-14075
▁시중은행	-14076
▁현안에	-14077
▁문화방송	-14078
노이	-14079
▁극우	-14080
▁어울리는	-14081
▁상품으로	-14082
▁특검은	-14083
▁관제	-14084
투자증권에서	-14085
루는	-14086
▁뿜	-14087
▁두번째로	-14088
▁첩	-14089
▁목적을	-14090
▁입소	-14091
▁휴일	-14092
기간은	-14093
▁저작권	-14094
▁그다지	-14095
▁거예요	-14096
▁비난을	-14097
▁서울로	-14098
▁각자의	-14099
▁양대	-14100
▁상여	-14101
오면서	-14102
▁다음은	-14103
▁반해	-14104
▁안의	-14105
▁개헌안	-14106
▁참여정부	-14107
▁쇠고기	-14108
묘한	-14109
▁길에	-14110
무장	-14111
▁수위를	-14112
해수욕	-14113
▁같은데	-14114
▁지키지	-14115
▁방과	-14116
▁혼합	-14117
▁견해	-14118
▁광장에서	-14119
▁솜	-14120
▁강제로	-14121
분리	-14122
▁라면	-14123
▁이어지면서	-14124
내려	-14125
법률	-14126
▁다가오는	-14127
▁한눈에	-14128
▁돌연	-14129
▁공사는	-14130
▁벤츠	-14131
▁KO	-14132
색으로	-14133
▁체제로	-14134
여건	-14135
▁적자를	-14136
▁크기의	-14137
게도	-14138
▁건가	-14139
▁등장했다	-14140
▁국민들에게	-14141
▁퇴진	-14142
em	-14143
▁대강	-14144
비용을	-14145
▁you	-14146
▁이행을	-14147
76	-14148
사고를	-14149
▁처리할	-14150
▁밖에서	-14151
▁앓고	-14152
▁신중한	-14153
▁자발적으로	-14154
▁삶에	-14155
▁사장과	-14156
▁활동하는	-14157
▁헝	-14158
▁이날부터	-14159
▁가습기	-14160
▁유방	-14161
▁해결해야	-14162
▁차원	-14163
▁실력을	-14164
▁맡게	-14165
▁왕복	-14166
▁매니저	-14167
▁포상	-14168
▁인식하고	-14169
▁부른다	-14170
▁장면이	-14171
▁비영	-14172
해준	-14173
▁트래	-14174
58	-14175
▁중심이	-14176
▁선거는	-14177
▁반발했다	-14178
▁사천	-14179
폭탄	-14180
▁자정	-14181
▁인사는	-14182
▁본회의에서	-14183
회사로	-14184
▁생각한다며	-14185
▁생중계	-14186
업의	-14187
▁경과	-14188
▁퍼져	-14189
▁발굴해	-14190
▁사실과	-14191
▁방문했다	-14192
▁든든	-14193
▁휴양	-14194
▁교육청	-14195
▁알아야	-14196
▁1989	-14197
▁불가능하다	-14198
DB	-14199
▁깨고	-14200
▁지나친	-14201
▁산업을	-14202
▁거래량	-14203
▁오락	-14204
▁홍성	-14205
▁학교의	-14206
로봇	-14207
정원	-14208
▁성장에	-14209
▁에너	-14210
▁실수	-14211
▁적시	-14212
석에서	-14213
▁만의	-14214
▁의도가	-14215
▁여건이	-14216
▁유의해야	-14217
▁전례	-14218
▁나눌	-14219
▁쿨	-14220
▁청사	-14221
▁달러로	-14222
▁안정성	-14223
▁기구	-14224
▁품고	-14225
▁부부가	-14226
▁지속해서	-14227
▁업체를	-14228
션은	-14229
받게	-14230
▁조형	-14231
▁부문의	-14232
▁교육은	-14233
▁원작	-14234
▁목표다	-14235
시에는	-14236
▁마시고	-14237
▁발생한다	-14238
▁단식	-14239
▁수직	-14240
▁사람들과	-14241
▁비판하는	-14242
계리	-14243
▁법이	-14244
▁검찰과	-14245
▁극히	-14246
ak	-14247
▁위조	-14248
▁방탄	-14249
▁실은	-14250
▁양호한	-14251
심리	-14252
음은	-14253
된다며	-14254
여객	-14255
까지의	-14256
주얼	-14257
56	-14258
▁지냈	-14259
▁내부에서	-14260
▁산학협력	-14261
군으로	-14262
▁노트북	-14263
▁시기가	-14264
▁뒤에서	-14265
▁소모	-14266
▁탓이다	-14267
▁부재	-14268
▁창설	-14269
▁경제부총리	-14270
▁유적	-14271
만으로는	-14272
▁감리	-14273
놓았다	-14274
▁랩	-14275
곡동	-14276
▁나눴다	-14277
▁말인가	-14278
▁총력을	-14279
▁양해각	-14280
▁행동에	-14281
▁씽크풀	-14282
▁백운	-14283
▁지위	-14284
▁해결에	-14285
혹한	-14286
▁보호무역	-14287
합병	-14288
산업은	-14289
▁저축은행	-14290
▁차종	-14291
▁수용할	-14292
▁영화의	-14293
▁신안	-14294
▁고민이	-14295
▁하락세를	-14296
▁잭	-14297
▁기능성	-14298
▁종결	-14299
아지	-14300
▁저평가성	-14301
▁남자는	-14302
잡이	-14303
▁저감	-14304
▁의미하는	-14305
▁오늘도	-14306
▁대략	-14307
▁앞을	-14308
▁제치고	-14309
▁재보	-14310
▁평가하는	-14311
▁웹사이트	-14312
▁이르렀다	-14313
▁찾아볼	-14314
▁용납	-14315
▁응용	-14316
반대	-14317
▁주변에서	-14318
개동	-14319
▁상급	-14320
▁점진	-14321
▁전작	-14322
▁9.	-14323
▁MBN	-14324
▁확산되고	-14325
권에서	-14326
자이	-14327
▁퇴출	-14328
▁음란	-14329
해보	-14330
▁솔릭	-14331
▁달리는	-14332
량에	-14333
▁IMF	-14334
했으면	-14335
▁썩	-14336
▁모집한다	-14337
코올	-14338
▁상황과	-14339
▁냉장고	-14340
▁효과는	-14341
▁집중하고	-14342
▁뭐가	-14343
▁딥	-14344
▁내장	-14345
컨벤션	-14346
▁밥을	-14347
▁사람들도	-14348
계에서	-14349
▁폰	-14350
▁환수	-14351
▁푹	-14352
▁연면적	-14353
▁공격적으로	-14354
▁직원들에게	-14355
번의	-14356
▁증인	-14357
▁교육이	-14358
▁던졌다	-14359
▁여러가지	-14360
▁한방	-14361
▁모험	-14362
▁최씨는	-14363
ation	-14364
▁김천	-14365
▁NA	-14366
▁옹호	-14367
▁비치	-14368
당했다	-14369
▁한국형	-14370
▁거센	-14371
▁도요	-14372
▁불이익을	-14373
▁뺀	-14374
증권에서	-14375
▁행정부의	-14376
▁운반	-14377
▁대통령과의	-14378
▁피력	-14379
▁벌일	-14380
▁단계에	-14381
그린	-14382
▁정관	-14383
사업부	-14384
43	-14385
▁상표	-14386
▁확보하기	-14387
▁늘어났	-14388
▁불신	-14389
주었다	-14390
캠퍼스	-14391
▁자산운용	-14392
▁겨냥해	-14393
왔다고	-14394
▁장소로	-14395
▁예술의	-14396
▁적극적	-14397
천억	-14398
▁잎	-14399
▁서비스도	-14400
부산	-14401
▁맡겨	-14402
▁공지	-14403
▁승강	-14404
▁서비스에	-14405
▁사법부	-14406
매장	-14407
▁투기과열	-14408
▁신선한	-14409
▁요청에	-14410
음료	-14411
▁증설	-14412
▁칩	-14413
▁대선에서	-14414
()	-14415
▁고쳐	-14416
▁가능하다고	-14417
▁운수	-14418
▁문화의	-14419
▁정황을	-14420
▁시간도	-14421
터널	-14422
▁묶어	-14423
▁개헌을	-14424
▁페이스북을	-14425
▁국정감사	-14426
▁안녕	-14427
▁안겨	-14428
▁평화적	-14429
▁추진된다	-14430
박람	-14431
▁대응에	-14432
글라	-14433
▁급감	-14434
▁조성된	-14435
마저도	-14436
▁신기	-14437
▁현대건설	-14438
▁비유	-14439
▁윌리엄	-14440
▁말하며	-14441
▁많다고	-14442
▁시설이	-14443
▁의문을	-14444
▁벤치	-14445
▁사전투표	-14446
▁파크	-14447
▁칼을	-14448
▁당직	-14449
▁늑	-14450
▁양측은	-14451
파와	-14452
체적	-14453
▁실패한	-14454
▁대부분을	-14455
TS	-14456
려서	-14457
▁교보	-14458
▁수행하는	-14459
▁초록	-14460
▁표를	-14461
▁생긴다	-14462
▁고장	-14463
▁영주	-14464
▁공안	-14465
리조트	-14466
▁유명하다	-14467
▁용기	-14468
▁경제성장	-14469
차원	-14470
론의	-14471
점인	-14472
▁쥐고	-14473
▁매력을	-14474
▁취향	-14475
▁스님	-14476
▁옆에서	-14477
▁허브	-14478
▁권장	-14479
▁PBR	-14480
▁없었지만	-14481
▁엄마가	-14482
에미	-14483
투스	-14484
▁기록했다고	-14485
▁이사는	-14486
▁아카데미	-14487
대원	-14488
▁늘어난다	-14489
일수록	-14490
▁쪽에서	-14491
▁양이	-14492
하게도	-14493
▁무작	-14494
▁통치	-14495
▁정의용	-14496
▁바뀔	-14497
▁제품과	-14498
수학	-14499
▁카테	-14500
▁가죽	-14501
▁브레이	-14502
▁수사권	-14503
▁언덕	-14504
중학교	-14505
▁제시하는	-14506
▁안착	-14507
슬러	-14508
▁출동한	-14509
▁실현을	-14510
▁필요는	-14511
▁강사	-14512
시간은	-14513
▁체험을	-14514
▁가처분	-14515
▁GDP	-14516
▁미국인	-14517
층과	-14518
▁단어	-14519
▁지표로	-14520
바게	-14521
칙을	-14522
▁뇌물수수	-14523
등한	-14524
▁특징을	-14525
방법	-14526
▁한차례	-14527
상한	-14528
▁경의	-14529
▁절실	-14530
▁경협	-14531
청년	-14532
▁쉽다	-14533
시설에	-14534
▁대응해	-14535
▁섰다	-14536
▁우편	-14537
▁부모의	-14538
▁범죄를	-14539
▁추궁	-14540
▁나머지는	-14541
▁의료기기	-14542
▁낯선	-14543
▁CBS	-14544
나들	-14545
▁유보	-14546
41	-14547
▁불린다	-14548
▁강화했다	-14549
▁신작	-14550
▁조치에	-14551
▁국정운영	-14552
▁촉구하고	-14553
▁확보하는	-14554
▁자격이	-14555
▁단원	-14556
▁단절	-14557
▁재판이	-14558
▁상반기에	-14559
78	-14560
▁그로	-14561
▁김명수	-14562
▁서비스로	-14563
ld	-14564
포스트	-14565
▁나주	-14566
상인	-14567
증가	-14568
▁러시아가	-14569
▁낙태	-14570
견은	-14571
있어	-14572
▁실버	-14573
▁눈물이	-14574
▁외무성	-14575
▁북한산	-14576
적이라는	-14577
▁소식에	-14578
▁한반도에	-14579
▁단백질	-14580
▁디저	-14581
▁자위	-14582
▁그치지	-14583
▁스펙	-14584
▁대내	-14585
▁주어진	-14586
석과	-14587
▁연쇄	-14588
▁가르쳐	-14589
되었	-14590
타로	-14591
▁레이저	-14592
▁뉴시	-14593
▁자구	-14594
▁학살	-14595
천명	-14596
▁싱크	-14597
▁데도	-14598
▁성격을	-14599
▁우버	-14600
▁박람회	-14601
▁휩쓸	-14602
▁국민투표	-14603
활성	-14604
▁상황이라고	-14605
중독	-14606
▁사례로	-14607
▁선정돼	-14608
복무	-14609
▁본연의	-14610
민을	-14611
▁평가하고	-14612
▁간호사	-14613
▁하에	-14614
▁신입생	-14615
▁예매	-14616
▁중화	-14617
▁펼친다	-14618
▁돈은	-14619
▁보고서에서	-14620
▁실력	-14621
회장은	-14622
▁사학	-14623
▁동남아시아	-14624
▁안되는	-14625
▁농어촌	-14626
스타일	-14627
마토	-14628
출판	-14629
▁않아서	-14630
▁증상을	-14631
▁정동영	-14632
▁유류	-14633
구조를	-14634
▁설문조사	-14635
▁주범	-14636
▁생산을	-14637
▁케어	-14638
▁수수료를	-14639
▁수원시	-14640
▁민주주의를	-14641
▁개선될	-14642
▁이유에	-14643
▁보유세	-14644
▁넘지	-14645
▁넘겨진	-14646
▁하반기에	-14647
검찰	-14648
▁벚	-14649
▁원로	-14650
▁대학을	-14651
▁아쉽	-14652
▁본관	-14653
▁삼성은	-14654
▁보라	-14655
▁활발하게	-14656
도시로	-14657
▁가입한	-14658
▁뚫고	-14659
▁김혜	-14660
조원에	-14661
▁걷기	-14662
▁장이	-14663
분까지	-14664
▁경쟁력이	-14665
▁당기순이익	-14666
▁불투명	-14667
▁권고했다	-14668
▁지킬	-14669
▁가난한	-14670
증으로	-14671
▁엘리베이터	-14672
▁김희	-14673
▁규정에	-14674
▁김인	-14675
▁단계에서	-14676
▁남편이	-14677
▁때로는	-14678
▁이사장이	-14679
▁양은	-14680
앤젤	-14681
▁임진	-14682
거를	-14683
정책의	-14684
▁청년들이	-14685
▁나뉜	-14686
▁전술핵	-14687
답을	-14688
▁실감	-14689
▁구성원	-14690
독립	-14691
▁확고	-14692
구간	-14693
▁건수는	-14694
▁결정된	-14695
▁다음주	-14696
▁영화는	-14697
텍은	-14698
▁피서	-14699
▁삶과	-14700
▁인물이다	-14701
▁손꼽	-14702
▁이길	-14703
▁대답했다	-14704
▁자영업자	-14705
▁추격	-14706
▁소지가	-14707
▁무릎을	-14708
박람회	-14709
▁한도	-14710
선도	-14711
▁핀란드	-14712
▁잉글랜드	-14713
▁킨	-14714
▁서남	-14715
병은	-14716
리얼	-14717
▁자고	-14718
▁대면	-14719
▁식량	-14720
▁육성을	-14721
▁가능하게	-14722
▁교실	-14723
▁필요하다며	-14724
▁구조가	-14725
구치	-14726
▁종목은	-14727
▁책이	-14728
▁서울시의	-14729
▁교차	-14730
▁판매하고	-14731
▁분식	-14732
▁편지	-14733
프라이	-14734
▁감독을	-14735
▁브랜드가	-14736
▁개발했다	-14737
▁새만	-14738
▁박람	-14739
▁명은	-14740
▁최경환	-14741
▁이루어진	-14742
▁비만	-14743
행위에	-14744
▁도로를	-14745
▁체계적으로	-14746
▁내려진	-14747
▁이뤄져	-14748
▁돌고	-14749
▁장미	-14750
▁오디오	-14751
▁체결하고	-14752
▁고부가	-14753
▁차질이	-14754
사실을	-14755
▁뜨거	-14756
▁술에	-14757
▁변화의	-14758
▁결정했다고	-14759
▁변동성이	-14760
▁계단	-14761
▁급히	-14762
▁다녔	-14763
린다는	-14764
▁힘들어	-14765
수리	-14766
▁나가기로	-14767
▁때에	-14768
기상	-14769
▁에르	-14770
▁엽	-14771
▁당해	-14772
▁유혹	-14773
▁월세	-14774
▁무섭	-14775
▁고민하고	-14776
▁성장했다	-14777
▁입구	-14778
▁부응	-14779
▁기뻐	-14780
업자	-14781
실장이	-14782
▁구별	-14783
▁주최한	-14784
차전	-14785
▁직권남용	-14786
▁압수	-14787
점도	-14788
▁굳건	-14789
▁셔	-14790
내에	-14791
▁암살	-14792
▁12%	-14793
▁기재부	-14794
▁일으키는	-14795
▁성균관	-14796
▁투여	-14797
현장에서	-14798
버드	-14799
▁근로자의	-14800
▁증인으로	-14801
▁갯	-14802
▁구매한	-14803
지배	-14804
위생	-14805
▁개최했다고	-14806
▁분포	-14807
포지엄	-14808
▁주장하며	-14809
유기	-14810
▁향하는	-14811
▁무궁	-14812
▁방문할	-14813
▁늏	-14814
▁신흥국	-14815
세탁	-14816
▁이가	-14817
▁한마디로	-14818
산화	-14819
테크노	-14820
▁참관	-14821
▁중으로	-14822
▁인디	-14823
▁출발한	-14824
스틱	-14825
▁노골	-14826
▁국책	-14827
▁영장을	-14828
▁아름답	-14829
▁우연히	-14830
▁급변	-14831
▁남성의	-14832
▁검정	-14833
▁줄줄이	-14834
▁접수된	-14835
▁것들을	-14836
▁일찌감치	-14837
▁장마	-14838
▁기사의	-14839
▁붙잡혔다	-14840
대회가	-14841
▁백지	-14842
▁흔적	-14843
공이	-14844
교가	-14845
▁취지를	-14846
상태를	-14847
▁오너	-14848
▁예컨대	-14849
▁포천	-14850
▁실제로는	-14851
▁고양시	-14852
▁활발히	-14853
▁참석하는	-14854
▁베르	-14855
구니	-14856
▁촬영을	-14857
▁껍	-14858
반의	-14859
▁조치는	-14860
▁최고위원회의에서	-14861
▁사진과	-14862
가구로	-14863
직에	-14864
▁용서	-14865
무가	-14866
억원어	-14867
▁모두의	-14868
▁변수가	-14869
▁넷마블	-14870
▁의결했다	-14871
▁잦은	-14872
▁보이지만	-14873
르면서	-14874
▁성취	-14875
▁팽팽	-14876
▁의장이	-14877
▁부장판사는	-14878
▁북극	-14879
▁위임	-14880
문화예술	-14881
▁외쳤다	-14882
▁이건희	-14883
▁개그	-14884
▁주위를	-14885
콘서트	-14886
▁자궁	-14887
▁인천국제공항	-14888
▁수출을	-14889
▁선수들의	-14890
▁대동	-14891
▁꿈꾸는	-14892
▁통학	-14893
▁모두를	-14894
루가	-14895
▁많은데	-14896
역량	-14897
▁가족들이	-14898
▁적게	-14899
이든	-14900
동생	-14901
▁공개하고	-14902
▁낮다	-14903
▁이곳을	-14904
▁민주당과	-14905
um	-14906
▁시를	-14907
▁DJ	-14908
▁폐기물	-14909
▁도착했다	-14910
▁부유	-14911
▁잔뜩	-14912
▁롯데그룹	-14913
▁쫓아	-14914
롭지	-14915
만큼은	-14916
▁목사	-14917
▁구속영장	-14918
▁소비자에게	-14919
▁자산을	-14920
▁억류	-14921
▁아랍에미	-14922
단다	-14923
▁띄는	-14924
▁걷는	-14925
▁총회	-14926
▁간신	-14927
▁홍영	-14928
▁무안	-14929
▁신사	-14930
▁행정부가	-14931
▁쓰러져	-14932
▁최고기온은	-14933
▁직결	-14934
▁폐막	-14935
▁발표하는	-14936
▁붙은	-14937
▁덴마크	-14938
ht	-14939
▁정부세종	-14940
▁스트레스를	-14941
▁환경부는	-14942
에프	-14943
글로벌	-14944
▁이번주	-14945
▁춘추	-14946
▁기조를	-14947
▁돌입했다	-14948
▁타깃	-14949
▁장학금	-14950
▁서산	-14951
처에	-14952
▁지난해에	-14953
▁주의해야	-14954
▁여성들의	-14955
▁강풍	-14956
▁댓글을	-14957
▁공립	-14958
▁웃고	-14959
IT	-14960
▁지원한	-14961
▁진흥	-14962
▁파악할	-14963
▁국가는	-14964
▁보고서에	-14965
신청을	-14966
이거나	-14967
▁장군	-14968
▁노조의	-14969
▁차장	-14970
▁명으로	-14971
▁동반성장	-14972
제일제	-14973
▁드러내	-14974
관절	-14975
▁왕이	-14976
▁중랑	-14977
▁들어설	-14978
▁이끌었다	-14979
회사를	-14980
정책과	-14981
▁파리바게	-14982
▁도입했다	-14983
▁분양가	-14984
▁트렌드를	-14985
▁고추	-14986
▁고령화	-14987
▁반사	-14988
▁지켜야	-14989
▁심리적	-14990
▁국정원이	-14991
▁편이었다	-14992
경험	-14993
모토	-14994
말이	-14995
▁존재를	-14996
▁전략이다	-14997
▁단정	-14998
▁아라	-14999
▁거울	-15000
▁재판에서	-15001
▁전보다	-15002
▁교정	-15003
날을	-15004
▁왜냐	-15005
▁비영리	-15006
▁끝났다	-15007
모씨는	-15008
▁않았기	-15009
▁한발	-15010
코드	-15011
▁회원들이	-15012
▁틀어	-15013
만원대	-15014
▁세일	-15015
당국이	-15016
▁않는다며	-15017
파에	-15018
번째로	-15019
▁취재진	-15020
▁보장하는	-15021
▁유치를	-15022
▁오른다	-15023
▁대변인이	-15024
▁돌며	-15025
▁재학	-15026
▁줄고	-15027
▁요소를	-15028
▁가득한	-15029
▁채용을	-15030
▁도시로	-15031
금지법	-15032
▁스타벅스	-15033
일째	-15034
종일	-15035
▁비서관	-15036
르다	-15037
▁약을	-15038
▁반전	-15039
▁위원은	-15040
▁악영	-15041
▁횡단	-15042
▁산입	-15043
▁연안	-15044
▁문이	-15045
▁댓글조작	-15046
▁격차가	-15047
러가	-15048
▁외모	-15049
▁예멘	-15050
▁질병관리	-15051
▁아이스크	-15052
▁공개하지	-15053
▁아니다라고	-15054
월에도	-15055
▁구입할	-15056
▁로스앤젤	-15057
▁봤을	-15058
▁투수	-15059
▁제시되고	-15060
▁특화된	-15061
변경	-15062
▁발표가	-15063
산업이	-15064
▁지식재산	-15065
번지	-15066
▁),	-15067
▁제압	-15068
▁여기저	-15069
▁심도	-15070
▁끝이	-15071
▁실적은	-15072
▁사우디아	-15073
▁조업	-15074
해하는	-15075
▁인정할	-15076
66	-15077
▁1300	-15078
▁공연은	-15079
컨설팅	-15080
하시는	-15081
▁시그니	-15082
총괄	-15083
▁확대되고	-15084
▁남경필	-15085
▁나갔	-15086
▁산업단지	-15087
▁추가상승	-15088
▁올라온	-15089
▁엮	-15090
타가	-15091
▁건넨	-15092
▁아이디	-15093
걸음을	-15094
▁객관적으로	-15095
▁한상	-15096
▁엄중한	-15097
▁도시바	-15098
▁부지에	-15099
레이터	-15100
▁말아	-15101
▁귀환	-15102
▁쏟아져	-15103
▁확대한다	-15104
해야만	-15105
▁하나하나	-15106
▁안은	-15107
유플러스는	-15108
하이닉스	-15109
▁아파트가	-15110
▁소식통은	-15111
▁내비쳤다	-15112
았으나	-15113
불이	-15114
▁집무	-15115
▁시계	-15116
▁ETF	-15117
▁자격으로	-15118
빌리티	-15119
열이	-15120
▁최강	-15121
▁튼튼	-15122
▁초콜릿	-15123
▁못했다는	-15124
▁기아차는	-15125
시스코	-15126
▁공장에서	-15127
▁취지다	-15128
번호를	-15129
▁우정	-15130
▁같다며	-15131
▁신앙	-15132
교육과	-15133
길은	-15134
▁조성하는	-15135
▁건전한	-15136
▁일시적으로	-15137
▁안전과	-15138
▁일으킬	-15139
▁건지	-15140
▁사료	-15141
▁출고	-15142
판으로	-15143
호로	-15144
▁켈	-15145
농구	-15146
▁절망	-15147
대표는	-15148
▁소나무	-15149
▁사회적경제	-15150
▁해피	-15151
▁계급	-15152
▁남기고	-15153
▁사설	-15154
▁반면에	-15155
▁심어	-15156
▁증강	-15157
▁기간제	-15158
▁뛰었다	-15159
▁당협	-15160
▁산업부	-15161
▁띈다	-15162
▁단독주택	-15163
▁이뤘다	-15164
량으로	-15165
▁들면	-15166
▁it	-15167
▁하려는	-15168
반이	-15169
▁에버	-15170
▁옮겼다	-15171
만명에	-15172
▁산업은행	-15173
▁신혼부부	-15174
▁SW	-15175
▁동포	-15176
▁대우건설	-15177
▁본회의를	-15178
▁어업	-15179
▁구호를	-15180
▁달랐다	-15181
▁연기가	-15182
▁취임한	-15183
공작	-15184
▁듣지	-15185
류는	-15186
▁불고	-15187
교도	-15188
사단	-15189
매출	-15190
▁데서	-15191
보전	-15192
▁이뤄지	-15193
▁터미널	-15194
외과	-15195
▁75%	-15196
▁자치단체	-15197
개월이	-15198
▁극장	-15199
▁박기	-15200
▁스킨	-15201
▁사막	-15202
란이	-15203
미세	-15204
▁판정	-15205
▁규정이	-15206
▁넘는다	-15207
공유	-15208
▁앉은	-15209
▁축제를	-15210
▁나왔습니다	-15211
라와	-15212
여개의	-15213
스럽고	-15214
공사를	-15215
▁감성	-15216
동력	-15217
▁최근까지	-15218
▁국내에서는	-15219
▁사회관계망	-15220
▁재외	-15221
▁회생	-15222
▁기울이고	-15223
▁동영상을	-15224
▁홈플러스	-15225
▁실전	-15226
▁가능하고	-15227
다이	-15228
▁논란은	-15229
▁잡혀	-15230
십니까	-15231
▁공무원이	-15232
▁반발이	-15233
▁바보	-15234
▁옆으로	-15235
박이	-15236
▁밝혔다고	-15237
▁짙은	-15238
▁마크롱	-15239
▁달고	-15240
로스	-15241
▁밀착	-15242
▁부임	-15243
▁익숙한	-15244
▁무능	-15245
▁배울	-15246
▁배우고	-15247
▁최첨단	-15248
▁대표이사는	-15249
▁소비자들에게	-15250
▁전략이	-15251
▁가성	-15252
▁달할	-15253
▁시행할	-15254
▁러시아는	-15255
집단	-15256
▁말라고	-15257
▁사무실을	-15258
▁가지는	-15259
▁법무법인	-15260
▁JTBC	-15261
▁월평균	-15262
▁유기농	-15263
▁탈원전	-15264
▁대학에서	-15265
▁친일	-15266
▁크림	-15267
▁적용을	-15268
▁MD	-15269
▁알기	-15270
촉진	-15271
▁대화에	-15272
▁태안	-15273
▁프레임	-15274
▁정상화를	-15275
▁심해	-15276
▁쿠바	-15277
▁시선이	-15278
▁교사가	-15279
▁모르지만	-15280
▁의제	-15281
▁방지를	-15282
▁누리집	-15283
▁표면	-15284
▁졸업생	-15285
▁스포	-15286
▁등록된	-15287
▁등기	-15288
▁현주	-15289
▁더한	-15290
중의	-15291
▁지난해까지	-15292
▁받았다는	-15293
지수가	-15294
▁대회는	-15295
케인	-15296
▁멸종	-15297
▁위기가	-15298
▁멘토링	-15299
▁종목의	-15300
▁한결	-15301
▁상품권	-15302
▁임기를	-15303
▁새겨	-15304
▁돌이	-15305
▁유래	-15306
▁전무는	-15307
▁폴리	-15308
53	-15309
▁채소	-15310
▁법학	-15311
▁대화와	-15312
분계	-15313
▁추진하겠다고	-15314
협상을	-15315
▁조직의	-15316
▁연락이	-15317
▁제의	-15318
▁사진제공	-15319
▁당뇨병	-15320
공사와	-15321
▁묻지	-15322
▁환급	-15323
발전소	-15324
▁인체	-15325
란스	-15326
▁LCD	-15327
▁주머니	-15328
▁인준	-15329
▁안돼	-15330
▁공기가	-15331
가구를	-15332
▁느끼게	-15333
▁지음	-15334
소송을	-15335
▁스티븐	-15336
▁기성	-15337
▁지원금	-15338
▁천주교	-15339
▁알려지지	-15340
▁열쇠	-15341
▁하시	-15342
▁지상파	-15343
와도	-15344
▁라운	-15345
▁개인은	-15346
▁정했다	-15347
▁문턱	-15348
▁재원	-15349
시키지	-15350
든가	-15351
▁지수는	-15352
▁개선해	-15353
▁경우를	-15354
▁양승태	-15355
▁설치돼	-15356
▁9000	-15357
▁경제학	-15358
▁데이비드	-15359
▁이사회를	-15360
루살	-15361
▁산악	-15362
▁중앙정부	-15363
▁파리바게뜨	-15364
연구원이	-15365
당인	-15366
▁삼성그룹	-15367
▁공동성	-15368
▁기다려	-15369
▁매티스	-15370
▁앵커	-15371
▁명예를	-15372
OS	-15373
▁약간의	-15374
▁용기를	-15375
프란	-15376
▁남과	-15377
▁발로	-15378
▁전년보다	-15379
▁35%	-15380
▁받으	-15381
방위	-15382
▁US	-15383
▁국공립	-15384
▁토요	-15385
▁파급	-15386
▁공천을	-15387
▁충실	-15388
▁발전과	-15389
▁피곤	-15390
공사의	-15391
▁나서서	-15392
▁주민들에게	-15393
▁비틀	-15394
▁저희가	-15395
인데도	-15396
자재	-15397
예약	-15398
팀에	-15399
▁여력이	-15400
▁연구원	-15401
자로부터	-15402
▁나오면서	-15403
▁집착	-15404
▁양국은	-15405
운이	-15406
▁글에서	-15407
▁소송에서	-15408
▁그들에게	-15409
▁한국전력	-15410
▁이어서	-15411
▁변화없이	-15412
▁다가온	-15413
언이	-15414
▁국민건강	-15415
▁제주항공	-15416
▁노르웨이	-15417
▁소각	-15418
▁신호를	-15419
교실	-15420
티를	-15421
시피	-15422
방어	-15423
▁남는	-15424
루살렘	-15425
단지를	-15426
▁선생의	-15427
▁었다	-15428
▁레이더	-15429
뿐이다	-15430
란다	-15431
▁탄력을	-15432
▁최영	-15433
▁우려하는	-15434
▁홍익	-15435
▁조립	-15436
▁개가	-15437
▁나이에	-15438
거든요	-15439
날레	-15440
하늘	-15441
▁대접	-15442
71	-15443
▁법안이	-15444
▁소설가	-15445
▁출시했다고	-15446
격에	-15447
▁강조하며	-15448
▁주민과	-15449
▁목욕	-15450
▁온천	-15451
▁면담을	-15452
▁입장은	-15453
▁직전에	-15454
▁정도에	-15455
가리	-15456
▁낮았다	-15457
▁해소하기	-15458
릭스	-15459
▁씩	-15460
▁추운	-15461
주에서	-15462
▁럭셔	-15463
▁측과	-15464
▁찾아야	-15465
▁지급한다	-15466
▁후유	-15467
▁포함되지	-15468
비즈	-15469
▁오산	-15470
▁불안한	-15471
▁대기업의	-15472
▁신종	-15473
▁육아휴	-15474
압의	-15475
운송	-15476
▁팀의	-15477
▁r	-15478
멘트	-15479
▁세계가	-15480
▁실려	-15481
▁의정	-15482
▁동종	-15483
▁가져다	-15484
기업인	-15485
▁작품이다	-15486
▁승차	-15487
▁각별한	-15488
개월에	-15489
▁금메달을	-15490
▁생산성	-15491
르드	-15492
▁규정한	-15493
▁간섭	-15494
▁우체	-15495
박을	-15496
▁매칭	-15497
▁서울은	-15498
▁영향은	-15499
투자가	-15500
▁사안에	-15501
▁통화를	-15502
▁대성	-15503
▁조건이	-15504
점유	-15505
▁표출	-15506
▁불어넣	-15507
▁사례도	-15508
들까지	-15509
구청장은	-15510
▁보험사	-15511
▁장점을	-15512
▁특성에	-15513
▁주최하고	-15514
▁강화와	-15515
▁판매한	-15516
▁쌓인	-15517
▁자랑한다	-15518
▁기관과	-15519
▁침략	-15520
▁금연	-15521
전략을	-15522
▁벽에	-15523
희는	-15524
▁빼고	-15525
▁조항을	-15526
▁하원	-15527
▁상승할	-15528
전철	-15529
▁공간에서	-15530
▁보여줄	-15531
▁소문이	-15532
▁외국인과	-15533
▁선점	-15534
▁아픔을	-15535
▁일련의	-15536
▁군사분계	-15537
▁때문이라는	-15538
▁각광	-15539
통신이	-15540
▁돌아오는	-15541
트럭	-15542
▁치는	-15543
▁주거환경	-15544
▁통증이	-15545
▁한남	-15546
▁호수	-15547
▁입체	-15548
▁요금제	-15549
▁추억을	-15550
▁표방	-15551
▁안전에	-15552
현악	-15553
▁도입된	-15554
▁도착해	-15555
▁헌법에	-15556
▁제외하면	-15557
▁콘크	-15558
▁파산	-15559
▁책의	-15560
▁공문을	-15561
▁기술적	-15562
▁외화	-15563
▁남북은	-15564
▁트로	-15565
▁BBC	-15566
▁느낀다	-15567
타르	-15568
영화제	-15569
▁박준	-15570
▁제도의	-15571
▁커뮤니케이션	-15572
▁바다를	-15573
▁현장실	-15574
▁들어선다	-15575
수습	-15576
족의	-15577
▁어딘	-15578
니와	-15579
▁모멘텀을	-15580
▁마련돼	-15581
▁도시계획	-15582
실업	-15583
▁언제든	-15584
▁주최로	-15585
▁피부에	-15586
▁심사위원	-15587
▁묵묵	-15588
▁AS	-15589
▁김여정	-15590
▁선대	-15591
▁중남	-15592
인지를	-15593
▁그제	-15594
▁상용화	-15595
크라이나	-15596
▁성장하고	-15597
▁충실히	-15598
대학교는	-15599
▁비교를	-15600
민들의	-15601
▁동사에	-15602
▁우리나라가	-15603
자들에	-15604
▁외국어	-15605
▁확대했다	-15606
▁연인	-15607
▁의구	-15608
▁세상의	-15609
스톱	-15610
▁엉덩	-15611
아산	-15612
▁국가인권	-15613
▁배우는	-15614
▁행복을	-15615
▁뱃	-15616
▁관영	-15617
▁이밖에도	-15618
함으로	-15619
▁높아지는	-15620
▁많습니다	-15621
톋씉	-15622
▁심층	-15623
▁트렌드	-15624
▁불확실성이	-15625
▁잡기	-15626
▁참가자들은	-15627
▁고유의	-15628
▁거쳐야	-15629
▁늘렸다	-15630
▁확고한	-15631
▁직영	-15632
▁저렇게	-15633
▁자치구	-15634
▁살리기	-15635
▁시급한	-15636
면세점	-15637
▁가져올	-15638
▁착각	-15639
▁완벽하게	-15640
달러를	-15641
▁인생을	-15642
▁이례적으로	-15643
다듬	-15644
▁간신히	-15645
듯한	-15646
▁걷고	-15647
▁위협이	-15648
▁될지	-15649
컴퍼	-15650
쇼핑몰	-15651
▁반기	-15652
해주고	-15653
▁감사원	-15654
▁콘서	-15655
▁화천	-15656
▁101	-15657
▁결합한	-15658
혈관	-15659
▁볼때	-15660
장에는	-15661
▁협의가	-15662
▁지자체가	-15663
음으로	-15664
▁달라질	-15665
▁대회의실에서	-15666
▁카르	-15667
▁주어진다	-15668
화탄	-15669
▁업무협약	-15670
▁특활비	-15671
63	-15672
▁메뉴를	-15673
▁확정됐다	-15674
장으로부터	-15675
▁대원	-15676
▁녀석의	-15677
▁비정상	-15678
였을	-15679
겠는가	-15680
▁연다고	-15681
년에도	-15682
▁위원회는	-15683
스틴	-15684
리라는	-15685
▁터치	-15686
▁학업	-15687
ore	-15688
결의	-15689
▁화제를	-15690
▁지수가	-15691
▁수입을	-15692
월께	-15693
▁수익률을	-15694
▁플로리다	-15695
양호	-15696
▁전문가가	-15697
▁브루	-15698
▁졸업하고	-15699
미술관	-15700
▁인간은	-15701
워야	-15702
92	-15703
▁치아	-15704
▁DMZ	-15705
▁가방	-15706
▁옐	-15707
▁조화	-15708
민주연합	-15709
산에서	-15710
업체를	-15711
▁신산업	-15712
▁히트	-15713
면접	-15714
▁예선	-15715
▁군대	-15716
▁강화한다	-15717
▁선원	-15718
▁파생	-15719
▁정치적으로	-15720
▁무책임	-15721
▁듀얼	-15722
▁즈	-15723
▁기후변화	-15724
▁댐	-15725
▁못했고	-15726
▁개선하고	-15727
장려	-15728
▁말과	-15729
▁찾아온	-15730
▁가계대출	-15731
▁정직	-15732
보의	-15733
▁정면으로	-15734
▁지식을	-15735
가들이	-15736
▁설치하는	-15737
▁내며	-15738
▁순매수했다	-15739
음식	-15740
▁구단	-15741
▁말이야	-15742
▁조금이라도	-15743
▁알려지면서	-15744
황이	-15745
▁주축	-15746
▁구조적	-15747
▁뉴스를	-15748
▁효과도	-15749
▁국정원의	-15750
▁움직일	-15751
▁결론이	-15752
▁분주	-15753
▁본토	-15754
na	-15755
▁공감대를	-15756
물류	-15757
▁시총	-15758
▁분석되고	-15759
대기	-15760
▁활력을	-15761
▁사업도	-15762
▁마트	-15763
▁쪽의	-15764
▁항공사	-15765
▁회복을	-15766
▁안드로이드	-15767
▁여당의	-15768
▁넘겼다	-15769
▁생태계를	-15770
▁데에	-15771
▁지정학적	-15772
원으로부터	-15773
▁윤영	-15774
▁적당	-15775
▁순방	-15776
커스	-15777
▁제작해	-15778
▁요청할	-15779
▁정하는	-15780
진구	-15781
오지	-15782
▁석유화학	-15783
일치	-15784
ith	-15785
▁실형을	-15786
세상	-15787
▁소독	-15788
▁의무가	-15789
▁풍계리	-15790
▁뽑는	-15791
▁톤	-15792
끄럽	-15793
▁빚어	-15794
전당	-15795
HD	-15796
▁정체성을	-15797
▁재수	-15798
▁떴	-15799
▁종부	-15800
▁관리할	-15801
▁살던	-15802
▁허리를	-15803
▁전하는	-15804
▁지친	-15805
▁무시하고	-15806
온은	-15807
▁모델은	-15808
▁영원히	-15809
▁증가세를	-15810
▁바꿨다	-15811
▁우크라이나	-15812
▁주파수	-15813
▁재미를	-15814
▁그러므로	-15815
▁부위원장은	-15816
▁얻기	-15817
▁인명피해	-15818
▁ww	-15819
열에	-15820
▁접촉을	-15821
▁홍대	-15822
▁노동자들의	-15823
▁타는	-15824
▁왠지	-15825
▁이견이	-15826
▁임기가	-15827
▁이용자가	-15828
소수	-15829
타의	-15830
▁톡톡	-15831
▁취업을	-15832
▁지진으로	-15833
▁아리랑	-15834
▁증가해	-15835
▁쿠데	-15836
▁위치에	-15837
▁성장하는	-15838
▁구성하고	-15839
▁효율성을	-15840
▁www	-15841
▁관계는	-15842
중개	-15843
물질이	-15844
▁상품이	-15845
▁증거인	-15846
▁성장성이	-15847
▁세이프가	-15848
학과를	-15849
▁분야로	-15850
▁생각한	-15851
조약	-15852
마당	-15853
▁있음에도	-15854
수수료	-15855
▁산지	-15856
▁해보	-15857
▁어디까지	-15858
▁차에	-15859
▁에도	-15860
▁전역	-15861
▁의문이	-15862
▁말씀드	-15863
▁육상	-15864
▁추진에	-15865
▁티셔츠	-15866
가인	-15867
▁않으면서	-15868
▁무분	-15869
▁롯데월드	-15870
▁지능형	-15871
▁신상	-15872
▁적발됐다	-15873
▁효성	-15874
▁치료가	-15875
▁불쾌	-15876
▁마이너스	-15877
▁하수	-15878
▁발표에	-15879
▁경쟁률을	-15880
▁걸림돌	-15881
▁잠수함	-15882
RT	-15883
▁차려	-15884
마한	-15885
▁대단한	-15886
병에	-15887
▁설치할	-15888
▁첼	-15889
병으로	-15890
▁라스	-15891
▁팀장	-15892
▁표했다	-15893
▁전적으로	-15894
척을	-15895
▁대두	-15896
▁보이면서	-15897
▁판로	-15898
쪽에서	-15899
▁냉각	-15900
▁미래에셋대우	-15901
57	-15902
▁달러의	-15903
▁넥슨	-15904
▁파악해	-15905
▁사람으로	-15906
온이	-15907
▁여자는	-15908
▁특별검사	-15909
재는	-15910
▁경기도는	-15911
▁대전시	-15912
병원에	-15913
▁240	-15914
▁창고	-15915
▁벡	-15916
▁제도는	-15917
▁최종적으로	-15918
▁열람	-15919
갑을	-15920
▁인물로	-15921
▁공급할	-15922
기록을	-15923
▁정책적	-15924
▁일방적인	-15925
▁탄탄한	-15926
▁함양	-15927
▁자사고	-15928
▁대응하는	-15929
▁회동을	-15930
▁불안감을	-15931
▁전망입니다	-15932
▁촌	-15933
도의회	-15934
▁형사합의	-15935
▁매립	-15936
휴가	-15937
▁차이는	-15938
▁중견기업	-15939
▁한경	-15940
겁다	-15941
▁단속을	-15942
▁수석대변인은	-15943
계로	-15944
▁사용된	-15945
▁공모전	-15946
▁동문	-15947
▁국왕	-15948
연구소는	-15949
▁상회하는	-15950
▁행렬	-15951
▁포부를	-15952
▁낮추는	-15953
▁넘어가	-15954
▁위험에	-15955
▁부른	-15956
▁넉넉	-15957
▁조사했다	-15958
▁납입	-15959
▁검사의	-15960
▁증시가	-15961
▁텃밭	-15962
▁지체	-15963
▁강화된	-15964
▁버락	-15965
동기	-15966
▁얼어붙	-15967
성향	-15968
▁믿는다	-15969
▁헌정	-15970
▁HD	-15971
▁제한을	-15972
▁민병	-15973
▁사적	-15974
▁성주	-15975
▁연루된	-15976
▁미지수	-15977
미에	-15978
▁난방	-15979
▁도드라	-15980
▁이한	-15981
▁투자할	-15982
퀘어	-15983
▁국방장관	-15984
츠는	-15985
▁폐업	-15986
급적	-15987
▁마시는	-15988
▁정상적으로	-15989
▁부적절	-15990
▁부양	-15991
▁탐색	-15992
▁화상	-15993
▁현실화	-15994
▁종일	-15995
코노	-15996
▁보름	-15997
▁입금	-15998
▁보태	-15999
▁받았지만	-16000
진출	-16001
금리가	-16002
▁마신	-16003
▁보호하기	-16004
▁CG	-16005
▁옮기	-16006
▁이용이	-16007
▁민주화운동	-16008
▁강성	-16009
▁벚꽃	-16010
▁네이버는	-16011
▁달러에	-16012
▁중간에	-16013
▁피부를	-16014
▁어머니의	-16015
루의	-16016
▁핑크	-16017
▁방향에	-16018
▁트위터를	-16019
▁발견한	-16020
극장	-16021
사와의	-16022
▁지방정부	-16023
▁신영	-16024
▁하겠습니다	-16025
▁노동자들이	-16026
맞춤	-16027
되기를	-16028
▁아내가	-16029
▁대지	-16030
▁결정적인	-16031
녀가	-16032
▁기아자동차	-16033
▁싸우	-16034
상거래	-16035
놓을	-16036
▁성평등	-16037
▁열을	-16038
▁효능	-16039
▁보궐선거	-16040
▁공간에	-16041
▁놀이터	-16042
▁강서구	-16043
▁제고를	-16044
▁가세	-16045
▁동지	-16046
▁합창	-16047
투자증권은	-16048
매가	-16049
▁구간을	-16050
▁원리	-16051
▁봉쇄	-16052
렉트	-16053
률도	-16054
마드	-16055
▁일으켰다	-16056
도도	-16057
재단이	-16058
▁주석은	-16059
▁해병대	-16060
▁이동할	-16061
▁몸의	-16062
▁기억을	-16063
▁텍사스	-16064
▁정몽	-16065
▁온다	-16066
▁사라지고	-16067
▁편의성을	-16068
▁언론사	-16069
▁포스터	-16070
총을	-16071
▁판매량	-16072
▁과거사	-16073
▁기능도	-16074
특보가	-16075
▁닛	-16076
▁먹은	-16077
▁차익	-16078
▁기사가	-16079
▁느껴지는	-16080
▁석사	-16081
▁대기오염	-16082
지거나	-16083
▁여러분께	-16084
▁가담	-16085
▁예수	-16086
▁이튿	-16087
증과	-16088
▁숙소	-16089
▁부족해	-16090
▁내놓지	-16091
공장을	-16092
▁조화를	-16093
▁코트	-16094
▁공직자	-16095
▁지역에서는	-16096
▁미드	-16097
▁닷	-16098
▁하자는	-16099
▁감동을	-16100
▁대명	-16101
▁문제라고	-16102
형태	-16103
▁구매하는	-16104
▁사용했다	-16105
▁곤두	-16106
▁전문가로	-16107
▁계류	-16108
▁삼성동	-16109
▁일정에	-16110
책으로	-16111
▁아우디	-16112
▁세션	-16113
▁나누어	-16114
▁살아있는	-16115
브는	-16116
▁브렉시	-16117
▁전면에	-16118
▁개인적인	-16119
▁카지노	-16120
▁친화	-16121
▁부부는	-16122
▁전기를	-16123
시간으로	-16124
베리	-16125
▁기둥	-16126
▁한번도	-16127
▁금융회사	-16128
혐의	-16129
▁민족의	-16130
이므로	-16131
▁흥분	-16132
▁지켜보고	-16133
▁지옥	-16134
년차	-16135
▁별개로	-16136
▁급증했다	-16137
만개	-16138
86	-16139
▁반려견	-16140
▁절약	-16141
포로	-16142
▁귀순	-16143
▁이걸	-16144
▁이튿날	-16145
▁정상회담의	-16146
▁장남	-16147
▁외에는	-16148
▁선보이며	-16149
폈다	-16150
▁공헌	-16151
발사	-16152
▁김이	-16153
▁보은	-16154
▁450	-16155
▁아르헨티나	-16156
▁받기도	-16157
▁미혼	-16158
▁떠오른	-16159
차관	-16160
▁전문의	-16161
간이	-16162
▁개선하는	-16163
▁사용한다	-16164
▁설명하는	-16165
▁커버	-16166
▁커피를	-16167
▁뭐라고	-16168
▁벗어난	-16169
▁위협하는	-16170
▁사각지	-16171
▁연구는	-16172
실천	-16173
팀과	-16174
▁10.	-16175
▁이야기다	-16176
▁폐지를	-16177
▁방중	-16178
▁남아있	-16179
일간의	-16180
ID	-16181
▁백제	-16182
▁교육감은	-16183
▁박수를	-16184
▁연설을	-16185
▁재미있는	-16186
브이	-16187
▁떠날	-16188
▁카탈	-16189
▁설명할	-16190
▁춤을	-16191
▁낭비	-16192
▁소용	-16193
▁개최된다	-16194
졌으나	-16195
▁사정을	-16196
▁센트럴	-16197
▁할인된	-16198
▁득점	-16199
교과서	-16200
▁앞바다	-16201
▁투자한	-16202
▁의무화	-16203
▁키운	-16204
▁소외계층	-16205
증에	-16206
데도	-16207
테러	-16208
▁수년간	-16209
▁조금만	-16210
▁카메라를	-16211
▁공단	-16212
대리	-16213
▁찾아와	-16214
▁시스템은	-16215
저가	-16216
장치를	-16217
▁확인하기	-16218
▁향하고	-16219
▁통지	-16220
▁경험할	-16221
노동당	-16222
터로	-16223
▁신촌	-16224
▁환경영향	-16225
▁발전소	-16226
▁접어들	-16227
▁햇빛	-16228
티는	-16229
▁결혼을	-16230
▁좋게	-16231
했어요	-16232
▁알아서	-16233
▁수출입	-16234
▁싣고	-16235
▁포위	-16236
▁고리	-16237
▁조계	-16238
▁구청장은	-16239
▁운동이	-16240
▁금지하는	-16241
▁새만금	-16242
▁고공	-16243
▁하동	-16244
▁달래	-16245
▁긴장을	-16246
▁종합해	-16247
업계가	-16248
▁빠르고	-16249
▁불복	-16250
▁DS	-16251
▁비행기	-16252
▁지인	-16253
▁없이는	-16254
▁구본	-16255
▁펼친	-16256
▁한반도를	-16257
▁납세	-16258
▁학력	-16259
스쿨	-16260
▁시기는	-16261
▁연구가	-16262
▁기초생활	-16263
▁사우디아라비아	-16264
▁잣	-16265
▁꿇	-16266
학교를	-16267
▁마음은	-16268
▁배분	-16269
▁증폭	-16270
▁녀석은	-16271
▁부작용이	-16272
월을	-16273
▁개최하는	-16274
▁도시락	-16275
줄을	-16276
▁덕에	-16277
▁정규직으로	-16278
▁지속되고	-16279
▁하향조정	-16280
엔지니어링	-16281
▁뱀	-16282
공무	-16283
94	-16284
▁보장을	-16285
▁일각에선	-16286
▁교직원	-16287
경북	-16288
▁어디로	-16289
▁찾는다	-16290
▁즐거움을	-16291
▁윤종	-16292
▁깊게	-16293
▁영수	-16294
▁세탁기	-16295
▁원도	-16296
교는	-16297
▁기한	-16298
▁남기	-16299
▁보도한	-16300
록을	-16301
▁표지	-16302
▁방학	-16303
▁오키	-16304
▁떼어	-16305
▁펼치는	-16306
▁열대야	-16307
▁당진	-16308
▁원내대책	-16309
▁타당성	-16310
▁선수는	-16311
▁평가는	-16312
하는지	-16313
▁북중	-16314
▁지도부가	-16315
운을	-16316
▁드문	-16317
▁한국관광	-16318
▁샌드	-16319
▁정재	-16320
▁적정한	-16321
▁방침이라고	-16322
▁월스트리트저널	-16323
▁하반기부터	-16324
▁온실가스	-16325
▁일원에서	-16326
▁매매의견을	-16327
적으로도	-16328
공은	-16329
▁걸까	-16330
▁빈번	-16331
▁선순환	-16332
▁간절	-16333
▁잔여	-16334
▁고심	-16335
경정	-16336
▁치러진	-16337
ha	-16338
▁틀을	-16339
▁계약이	-16340
▁비무장	-16341
보고서를	-16342
▁가구의	-16343
▁전체에	-16344
▁감사합니다	-16345
내셔널	-16346
▁상품의	-16347
▁후보들이	-16348
간다는	-16349
▁경위	-16350
▁공룡	-16351
▁기록하는	-16352
▁따르고	-16353
▁하나금융투자	-16354
▁핵심인	-16355
▁활짝	-16356
▁평가에서	-16357
▁미주	-16358
롭다	-16359
적이며	-16360
고사	-16361
▁여당인	-16362
▁220	-16363
▁관련해선	-16364
▁치른	-16365
이크	-16366
▁법과	-16367
▁당선인은	-16368
▁완도	-16369
▁공식적인	-16370
▁남자의	-16371
▁아쉬운	-16372
▁급성	-16373
▁돌아갔다	-16374
▁가이드라인	-16375
네트	-16376
협정을	-16377
▁에드	-16378
▁배신	-16379
▁지경	-16380
▁총장이	-16381
▁소금	-16382
물질을	-16383
▁피고인	-16384
▁예정대로	-16385
▁맡았던	-16386
▁사망했다	-16387
였기	-16388
▁텔레비전	-16389
▁건넸	-16390
▁주최하는	-16391
▁늘어나면서	-16392
▁반대하고	-16393
▁버스를	-16394
▁이후의	-16395
추는	-16396
▁관통	-16397
▁청문회	-16398
급한	-16399
▁일제강	-16400
▁조경	-16401
병의	-16402
▁나타났다고	-16403
▁예상됩니다	-16404
▁기대에	-16405
님께	-16406
▁연방준비	-16407
▁지원사업	-16408
주의에	-16409
▁맞다	-16410
▁초당	-16411
▁시집	-16412
오픈	-16413
▁옴	-16414
텍스	-16415
▁폭락	-16416
▁성향의	-16417
▁싶습니다	-16418
▁이동평균	-16419
▁배열	-16420
프란시스코	-16421
▁정상회담에	-16422
▁조그	-16423
▁경제성	-16424
▁권오	-16425
▁성장한	-16426
▁수월	-16427
▁못지않	-16428
▁미래가	-16429
▁하려면	-16430
▁전의	-16431
▁햇볕	-16432
증후	-16433
▁보람	-16434
급으로	-16435
▁결선	-16436
▁부작용을	-16437
▁제출할	-16438
▁엄정	-16439
▁협력이	-16440
▁손바닥	-16441
▁분노를	-16442
졌는데	-16443
▁표현이	-16444
상가	-16445
▁악취	-16446
▁홍영표	-16447
▁구름이	-16448
▁성화	-16449
▁바이올	-16450
민들이	-16451
▁빛나는	-16452
전도	-16453
▁서비스의	-16454
▁상권	-16455
▁하나씩	-16456
▁좋았다	-16457
▁형태를	-16458
▁즐기고	-16459
▁시행하는	-16460
▁영유아	-16461
▁날로	-16462
거리고	-16463
▁도보	-16464
▁조심스럽게	-16465
▁편이	-16466
▁테라	-16467
▁이유도	-16468
▁관리하고	-16469
▁색다른	-16470
▁있었으며	-16471
▁성찰	-16472
▁기점으로	-16473
▁토끼	-16474
▁보인다며	-16475
리나	-16476
▁알리기	-16477
▁과도하게	-16478
▁끼고	-16479
▁내실	-16480
▁섬세	-16481
사업본부	-16482
▁것이지	-16483
접촉	-16484
▁자료가	-16485
▁울려	-16486
▁정치에	-16487
▁당시에는	-16488
▁수뇌	-16489
▁이메일	-16490
▁경영진	-16491
터의	-16492
▁참고인	-16493
▁스노	-16494
▁정상회의	-16495
▁대우조선해양	-16496
▁전념	-16497
▁군에	-16498
▁과장은	-16499
▁사안이	-16500
▁양극화	-16501
쳤습니다	-16502
▁생각이다	-16503
▁잃었다	-16504
▁박태	-16505
▁분배	-16506
▁라면서	-16507
▁언젠가	-16508
▁개헌안을	-16509
▁미치	-16510
▁과감한	-16511
▁사운드	-16512
▁후회	-16513
▁조명균	-16514
▁예루살렘	-16515
▁소명	-16516
▁집이	-16517
주의의	-16518
▁애플의	-16519
▁국회의장	-16520
▁낸다	-16521
양성	-16522
▁메르켈	-16523
▁유선	-16524
▁금천	-16525
▁걸음을	-16526
▁뒤집어	-16527
레나	-16528
▁악영향을	-16529
▁등급을	-16530
월로	-16531
맞이	-16532
▁예로	-16533
▁발목을	-16534
▁적발된	-16535
퍼드	-16536
▁커지면서	-16537
▁꿰	-16538
▁키울	-16539
왔지만	-16540
회원	-16541
▁입술을	-16542
뱅킹	-16543
으로만	-16544
▁근처에	-16545
계획에	-16546
▁기울여	-16547
▁더했다	-16548
▁상태이다	-16549
▁발동	-16550
바꿈	-16551
▁신부	-16552
▁천재	-16553
▁뜯어	-16554
▁제휴를	-16555
▁이해찬	-16556
▁알코올	-16557
▁데이트	-16558
▁그었다	-16559
▁한미연합	-16560
▁아메리카	-16561
▁선에서	-16562
▁원장의	-16563
▁책임은	-16564
이라서	-16565
▁호조	-16566
▁시작했고	-16567
▁장기적인	-16568
벽이	-16569
▁실증	-16570
▁유영	-16571
▁국회의원이	-16572
라서	-16573
▁출마한	-16574
▁기적	-16575
▁인수를	-16576
▁구역	-16577
체육관에서	-16578
▁소셜미디어	-16579
맥주	-16580
▁무슬	-16581
▁부장은	-16582
▁상설	-16583
▁검증을	-16584
▁모두발언을	-16585
▁않다며	-16586
우로	-16587
▁주목하고	-16588
▁만들겠다고	-16589
발생	-16590
야마	-16591
▁성공할	-16592
▁시장에서는	-16593
▁조성하고	-16594
▁놀랍	-16595
▁형이	-16596
▁무제한	-16597
▁노동시간	-16598
국립	-16599
▁집값이	-16600
퇴직	-16601
▁오버	-16602
▁의미에서	-16603
플레이션	-16604
▁표현했다	-16605
▁한성	-16606
▁프로그램도	-16607
▁경제는	-16608
손해	-16609
▁소득세	-16610
위권	-16611
▁조성에	-16612
만명으로	-16613
▁김의	-16614
▁안에는	-16615
▁정당이	-16616
▁초래할	-16617
▁초미세	-16618
▁샌프란시스코	-16619
▁각기	-16620
▁도래	-16621
▁끼어	-16622
▁최저임금을	-16623
▁계획하고	-16624
▁왔던	-16625
▁원칙적으로	-16626
벨트	-16627
▁강연을	-16628
학대	-16629
▁결정될	-16630
▁동호	-16631
▁몸은	-16632
▁혼자서	-16633
▁단편	-16634
▁항해	-16635
▁행동이	-16636
림으로	-16637
▁후보자를	-16638
▁상응	-16639
▁교훈	-16640
▁나들이	-16641
▁전성	-16642
▁대응이	-16643
▁애플은	-16644
대금	-16645
▁불리한	-16646
▁학문	-16647
▁사무총장	-16648
▁보물	-16649
▁아우르는	-16650
▁독거	-16651
▁안타까운	-16652
▁성공적	-16653
▁증거인멸	-16654
▁직원들을	-16655
▁창출에	-16656
라운	-16657
▁충당	-16658
▁홍보를	-16659
▁예고했다	-16660
▁찜	-16661
▁해남	-16662
▁고평가	-16663
▁전반을	-16664
목표	-16665
▁스스로를	-16666
▁과거와	-16667
▁김일성	-16668
▁교육에	-16669
▁감자	-16670
▁새정치민주연합	-16671
받기	-16672
▁대상자	-16673
▁죽음의	-16674
▁기록이	-16675
▁발생하면	-16676
음과	-16677
▁내부에	-16678
▁hani	-16679
메드	-16680
▁제작된	-16681
이도	-16682
▁길고	-16683
▁파주시	-16684
▁거부하고	-16685
러닝	-16686
예고	-16687
▁법의	-16688
▁인삼	-16689
▁짓을	-16690
본부를	-16691
▁메르세	-16692
▁망설	-16693
▁대학은	-16694
▁영암	-16695
▁투자와	-16696
▁법무부는	-16697
▁지방선거에	-16698
▁장소에서	-16699
교육청이	-16700
▁마라톤	-16701
▁비서관은	-16702
▁오후에	-16703
교육의	-16704
▁우아	-16705
▁입문	-16706
▁않거나	-16707
대화	-16708
▁이희	-16709
▁시의원	-16710
▁대관	-16711
▁국유	-16712
▁거기서	-16713
▁미국과의	-16714
▁연구진은	-16715
▁투기과열지구	-16716
▁일감	-16717
▁아키	-16718
▁이화여대	-16719
▁딸의	-16720
▁위협에	-16721
▁인형	-16722
척이	-16723
▁맞을	-16724
▁단체가	-16725
▁발전시켜	-16726
▁소진	-16727
▁양재	-16728
▁적을	-16729
들에게도	-16730
▁컨벤션	-16731
▁둬	-16732
▁가치는	-16733
▁운영되고	-16734
▁공개됐다	-16735
▁압수수색을	-16736
▁고인의	-16737
▁예술단	-16738
▁수단을	-16739
▁전북도	-16740
▁상대가	-16741
▁간첩	-16742
▁상납	-16743
▁시민참여	-16744
▁중앙위원회	-16745
경찰서에	-16746
▁도봉	-16747
장으로서	-16748
▁가구가	-16749
▁스프링	-16750
▁구석	-16751
▁금요일	-16752
민과	-16753
▁경기장	-16754
▁식약처	-16755
▁조카	-16756
▁230	-16757
▁있어서다	-16758
59	-16759
▁김학	-16760
공인	-16761
▁연결된	-16762
▁안건을	-16763
▁추방	-16764
▁김영삼	-16765
▁고고	-16766
스트로	-16767
▁정계	-16768
▁중국어	-16769
▁퇫	-16770
창을	-16771
▁선택해	-16772
▁이름의	-16773
▁수익률이	-16774
▁11%	-16775
▁둘이	-16776
▁환율이	-16777
▁해양수산부	-16778
▁전자상거래	-16779
▁법에	-16780
▁이적	-16781
▁주석의	-16782
▁보령	-16783
▁WTO	-16784
▁약정	-16785
▁정문	-16786
▁등록금	-16787
▁짚어	-16788
▁호전	-16789
▁금액이	-16790
▁메이크업	-16791
▁조망	-16792
▁악수를	-16793
▁출시할	-16794
▁때만	-16795
▁했는지	-16796
▁친구들과	-16797
▁승마	-16798
쳤던	-16799
▁어선	-16800
▁막상	-16801
▁함부로	-16802
▁현실에	-16803
▁베어	-16804
▁임산	-16805
캠퍼	-16806
▁얼마든지	-16807
▁주위	-16808
▁거꾸	-16809
▁강조한다	-16810
▁분위기는	-16811
▁일삼	-16812
▁PER	-16813
마리를	-16814
▁말하지	-16815
▁쓴다	-16816
▁창업을	-16817
▁대검찰	-16818
▁외국계	-16819
해볼	-16820
▁억압	-16821
▁무분별	-16822
▁시장으로	-16823
들기	-16824
▁셀프	-16825
▁문화관광	-16826
밴드	-16827
▁짐을	-16828
사고가	-16829
▁1100	-16830
친구	-16831
▁파면	-16832
먼지	-16833
▁똑똑	-16834
근한	-16835
지향	-16836
조사가	-16837
▁먹으면	-16838
▁국민들은	-16839
▁인원이	-16840
▁유럽에서	-16841
▁존재하지	-16842
▁막혀	-16843
▁최하	-16844
지하	-16845
구요	-16846
▁달이	-16847
해지면서	-16848
▁탈바꿈	-16849
▁속한다	-16850
▁AT	-16851
▁온열	-16852
▁설치했다	-16853
▁이해하기	-16854
▁성장의	-16855
▁거둘	-16856
▁바르셀	-16857
▁고려해야	-16858
사회복지	-16859
▁화면을	-16860
▁단장	-16861
▁삼각	-16862
▁통하여	-16863
▁성명에서	-16864
일이다	-16865
73	-16866
▁제빵	-16867
▁대내외	-16868
89	-16869
▁맛있는	-16870
▁전쟁의	-16871
▁배석	-16872
▁맥도	-16873
센터로	-16874
▁여왕	-16875
▁한식	-16876
▁줄어들고	-16877
용지	-16878
▁지원은	-16879
▁집계되었다	-16880
▁남아있는	-16881
▁쳤다	-16882
▁시사했다	-16883
▁이효	-16884
▁포함된다	-16885
▁역할은	-16886
▁확인을	-16887
▁없으니	-16888
▁끄는	-16889
▁남았다	-16890
▁실태를	-16891
년부터는	-16892
만달러를	-16893
만족	-16894
▁획기적으로	-16895
▁심야	-16896
▁검출된	-16897
▁일반인	-16898
▁스코어는	-16899
▁방송은	-16900
▁j	-16901
▁유대	-16902
▁싸움을	-16903
하겠지만	-16904
▁검토한	-16905
권익	-16906
르가	-16907
판은	-16908
▁성형	-16909
개혁을	-16910
▁제주도는	-16911
지출	-16912
▁부과하는	-16913
▁운영한다고	-16914
▁물품을	-16915
▁프란	-16916
▁이씨가	-16917
겠느냐	-16918
▁지정해	-16919
▁측에서	-16920
▁싱가포르에서	-16921
절로	-16922
▁머리에	-16923
▁경선을	-16924
▁김정은이	-16925
댔다	-16926
▁올리브	-16927
▁주상	-16928
▁깎아	-16929
▁바위	-16930
▁탐사	-16931
▁제외하고는	-16932
▁자녀가	-16933
즈와	-16934
▁토론회를	-16935
▁유지하면서	-16936
▁클리	-16937
▁세우는	-16938
▁많지만	-16939
간접	-16940
▁상승이	-16941
▁취재진의	-16942
더군요	-16943
▁분과	-16944
▁쫓겨	-16945
▁포르투	-16946
▁포기하고	-16947
▁명단	-16948
협의회는	-16949
▁쿼	-16950
유는	-16951
▁학대	-16952
▁나뉜다	-16953
▁갖췄	-16954
▁역세권	-16955
▁이벤트는	-16956
▁어떨	-16957
▁미만의	-16958
▁들었	-16959
▁양형	-16960
▁확대로	-16961
▁진상규명	-16962
▁소문	-16963
▁인도적	-16964
▁배럴	-16965
▁연재	-16966
▁실물	-16967
▁너머	-16968
▁신청은	-16969
▁고충	-16970
▁참가했다	-16971
강에	-16972
기온이	-16973
▁설명한다	-16974
▁차입	-16975
▁피난	-16976
▁애널리스트가	-16977
▁국립과학	-16978
▁탐구	-16979
▁국가에서	-16980
▁세련된	-16981
그리	-16982
▁설명회를	-16983
▁경품	-16984
는다는	-16985
▁열정	-16986
▁대표에게	-16987
수용	-16988
▁공약으로	-16989
▁할머니는	-16990
▁캐시	-16991
▁경제협력개발	-16992
▁목에	-16993
▁접경	-16994
▁것이냐	-16995
▁누락	-16996
▁넣었다	-16997
포털	-16998
▁녹아	-16999
▁행진을	-17000
▁대리점	-17001
▁이관	-17002
안내	-17003
예를	-17004
▁극동	-17005
▁희망의	-17006
▁전문가를	-17007
▁회의실에서	-17008
비엔	-17009
▁마을을	-17010
▁구청장	-17011
봉을	-17012
▁구실을	-17013
버거	-17014
▁장치를	-17015
oc	-17016
▁발의한	-17017
▁내로	-17018
경제를	-17019
▁SOC	-17020
▁읽을	-17021
단독	-17022
▁제시할	-17023
▁활용하고	-17024
▁탐지	-17025
▁반응은	-17026
▁쇼트	-17027
▁보여줬다	-17028
▁순조	-17029
▁아들의	-17030
▁주가수준을	-17031
▁감정이	-17032
어리	-17033
▁제기돼	-17034
▁확대됐다	-17035
▁his	-17036
▁선택하는	-17037
▁is	-17038
▁국립공원	-17039
▁시행을	-17040
조각	-17041
▁밝히면서	-17042
▁않나	-17043
▁무사히	-17044
▁락	-17045
▁건데	-17046
▁마련한다	-17047
79	-17048
▁코레	-17049
▁여당은	-17050
▁의해서	-17051
▁영문	-17052
▁매수로	-17053
▁조영	-17054
▁대신해	-17055
▁통보했다	-17056
▁여유가	-17057
▁수치였다	-17058
▁메르세데스	-17059
▁서비스와	-17060
년에서	-17061
안에서	-17062
▁참전	-17063
▁각별히	-17064
호영	-17065
▁팩터	-17066
▁소통과	-17067
▁가하고	-17068
▁담합	-17069
▁핵실험을	-17070
▁흔적이	-17071
▁액션	-17072
▁이씨의	-17073
▁노사가	-17074
▁날려	-17075
▁긴장이	-17076
모금	-17077
▁바른미래당은	-17078
▁일곱	-17079
▁역임했다	-17080
▁재일	-17081
▁계신	-17082
▁쇄신	-17083
▁언론을	-17084
▁한국토지	-17085
▁아시안게임	-17086
▁FA	-17087
▁소주	-17088
▁가리지	-17089
▁개편을	-17090
▁상황에서는	-17091
▁어린이들이	-17092
▁그러고	-17093
▁헤이	-17094
▁만장	-17095
▁증세	-17096
▁서두	-17097
난히	-17098
▁러브	-17099
▁서울역	-17100
▁여건을	-17101
유출	-17102
▁관측된다	-17103
경기에서	-17104
배치	-17105
▁상금	-17106
▁국민의당이	-17107
▁신성	-17108
▁차이나	-17109
▁놓았다	-17110
▁법적으로	-17111
▁105	-17112
▁거죠	-17113
▁출구	-17114
▁것이어서	-17115
▁결핵	-17116
▁있는지를	-17117
거리에서	-17118
▁산업부는	-17119
▁계층	-17120
▁나오자	-17121
작품	-17122
▁알릴	-17123
▁요약	-17124
▁확실하게	-17125
▁물결	-17126
▁고액	-17127
대사관	-17128
▁동력을	-17129
세서	-17130
OA	-17131
▁갤러	-17132
▁진술한	-17133
▁투명하게	-17134
▁유동성	-17135
▁학사	-17136
ab	-17137
▁공채	-17138
공약	-17139
▁부당하게	-17140
▁휘말	-17141
버스를	-17142
▁쿠폰	-17143
▁줘야	-17144
▁해외에	-17145
▁자회사인	-17146
▁나이트	-17147
▁시너지를	-17148
▁가상현실	-17149
동향	-17150
▁생각보다	-17151
▁보증금	-17152
▁논의에	-17153
▁방화	-17154
▁요건	-17155
▁저널	-17156
▁특검팀은	-17157
▁굶	-17158
보훈	-17159
주공	-17160
▁쓰기	-17161
▁최적화된	-17162
▁목숨	-17163
협회와	-17164
▁있었는지	-17165
▁최태	-17166
▁?	-17167
▁한국수	-17168
▁처우	-17169
▁수사는	-17170
림에	-17171
▁옮긴	-17172
▁인내	-17173
▁크리에	-17174
▁자본시장	-17175
▁김정숙	-17176
▁사안을	-17177
▁북한에서	-17178
▁한진그룹	-17179
▁대도시	-17180
▁아니며	-17181
닉스	-17182
▁일어나지	-17183
▁상반	-17184
▁되기도	-17185
▁반영하는	-17186
▁대표도	-17187
▁매번	-17188
란한	-17189
▁전염	-17190
▁발표하면서	-17191
주의보가	-17192
수단	-17193
▁김상조	-17194
▁그래야	-17195
▁국방부가	-17196
▁주제를	-17197
▁서울고법	-17198
▁클로	-17199
▁감히	-17200
▁사고는	-17201
▁초기에	-17202
▁기회로	-17203
협은	-17204
▁조장	-17205
▁잇따르고	-17206
모는	-17207
▁존엄	-17208
▁지속할	-17209
▁립	-17210
▁안심하고	-17211
시설로	-17212
천의	-17213
▁마비	-17214
▁시즌을	-17215
▁현실이	-17216
▁미끄러	-17217
▁거꾸로	-17218
▁사용자의	-17219
▁해외로	-17220
▁중부지방	-17221
MA	-17222
▁남산	-17223
▁[	-17224
▁즐겁게	-17225
대회는	-17226
▁루이	-17227
▁업무방해	-17228
▁특가	-17229
▁트럼프의	-17230
이어야	-17231
▁스피드	-17232
▁전하고	-17233
▁당사에서	-17234
▁기준은	-17235
▁깔려	-17236
▁동향을	-17237
로선	-17238
▁가량의	-17239
▁경영을	-17240
축을	-17241
▁열기로	-17242
▁관광객들이	-17243
▁웃는	-17244
▁보답	-17245
▁자동화	-17246
▁하이트	-17247
▁보험료를	-17248
▁여사는	-17249
▁청소년들이	-17250
▁환호	-17251
▁브랜드인	-17252
▁추상	-17253
▁모습도	-17254
▁이완	-17255
경과	-17256
▁김석	-17257
▁구성한	-17258
▁서비스다	-17259
▁STX	-17260
▁사회적기업	-17261
▁그친	-17262
▁삶은	-17263
▁비하면	-17264
▁심포지엄	-17265
▁에피	-17266
64	-17267
▁눌러	-17268
▁칠레	-17269
▁모른다는	-17270
바바	-17271
제도가	-17272
할까	-17273
▁장사	-17274
▁상승하고	-17275
▁애플이	-17276
▁침투	-17277
▁영역에서	-17278
디가	-17279
▁업체들은	-17280
▁브리핑룸에서	-17281
클리	-17282
▁어색	-17283
▁도입하는	-17284
▁가치와	-17285
▁넘을	-17286
▁비어	-17287
▁총파	-17288
▁타워	-17289
설에	-17290
쿠르	-17291
▁감상할	-17292
▁금전	-17293
▁조사와	-17294
배나	-17295
▁불가피한	-17296
▁어째	-17297
og	-17298
▁생리대	-17299
▁얼굴은	-17300
▁신용대출	-17301
▁참조	-17302
▁용도로	-17303
위원이	-17304
▁~	-17305
69	-17306
▁물놀이	-17307
부지	-17308
▁참여가	-17309
▁와중에	-17310
▁주도로	-17311
▁국내총	-17312
▁의료기관	-17313
▁총리를	-17314
▁사회는	-17315
▁피어	-17316
당으로	-17317
▁청년들의	-17318
▁벽을	-17319
▁중소기업이	-17320
▁01	-17321
▁자격증	-17322
▁느끼지	-17323
▁악의	-17324
▁간사	-17325
▁승소	-17326
엑스포	-17327
▁아프간	-17328
▁생산한	-17329
오가	-17330
▁개인적	-17331
▁체력	-17332
▁일제강점	-17333
▁추세를	-17334
▁폭넓은	-17335
▁유신	-17336
▁회의가	-17337
▁인상으로	-17338
▁후보에게	-17339
▁지질	-17340
▁인수한	-17341
여행을	-17342
▁거부했다	-17343
▁혁신도시	-17344
▁새삼	-17345
제도의	-17346
▁넘쳐	-17347
비도	-17348
▁평일	-17349
시설의	-17350
▁엔씨	-17351
▁지침을	-17352
▁정치가	-17353
▁중에서는	-17354
혈을	-17355
디에	-17356
▁유령	-17357
▁휠체	-17358
움에	-17359
MO	-17360
플루엔자	-17361
▁웃도는	-17362
경남	-17363
▁교복	-17364
▁정현	-17365
▁보고했다	-17366
▁신중하게	-17367
▁선고한	-17368
▁잡힌	-17369
단체인	-17370
▁리포트의	-17371
▁그러면서도	-17372
▁체질	-17373
▁과학기술정보통신부	-17374
▁동아리	-17375
▁륾	-17376
▁바둑	-17377
▁조별	-17378
레저	-17379
시면	-17380
▁차별화	-17381
▁높지	-17382
홀딩스	-17383
▁역사에	-17384
보와	-17385
▁본사를	-17386
▁샐	-17387
▁분수	-17388
▁불행	-17389
▁러시아와	-17390
방식을	-17391
▁하려	-17392
▁보건의료	-17393
▁45%	-17394
▁선택의	-17395
▁조문	-17396
▁수사와	-17397
ard	-17398
▁있어서는	-17399
▁회의는	-17400
▁확률이	-17401
▁CD	-17402
달러로	-17403
▁패밀리	-17404
▁개개	-17405
▁개최해	-17406
▁컨센서스는	-17407
▁지문	-17408
▁생산된	-17409
▁중남미	-17410
▁전기요금	-17411
▁비자	-17412
▁양평	-17413
일자	-17414
여부를	-17415
▁계획도	-17416
▁최상의	-17417
▁제공했다	-17418
숙이	-17419
▁방금	-17420
게이션	-17421
▁곤충	-17422
▁뒤덮	-17423
율과	-17424
종과	-17425
▁석면	-17426
▁흑인	-17427
▁상생협력	-17428
▁서술	-17429
▁학교폭력	-17430
▁켄	-17431
▁몰라도	-17432
호흡	-17433
▁베이비	-17434
▁법정에서	-17435
▁소방당국은	-17436
▁일한	-17437
her	-17438
▁도발에	-17439
▁접근이	-17440
▁소통하는	-17441
▁꽃을	-17442
▁컨센서스와	-17443
▁탑재한	-17444
▁프로그램의	-17445
▁수중	-17446
▁정우택	-17447
세인	-17448
▁먹어	-17449
▁한국산	-17450
▁마다	-17451
▁청구했다	-17452
출자	-17453
▁방식에	-17454
▁선정하고	-17455
▁위를	-17456
▁점거	-17457
▁다목적	-17458
▁오리지	-17459
▁브라운	-17460
▁부산시장	-17461
▁차지한다	-17462
▁거창	-17463
▁명단에	-17464
▁점과	-17465
▁초에	-17466
▁바뀌고	-17467
▁왕세	-17468
[...]
